[PAD]
[UNK]
[START]
[END]
!
"
#
$
%
&
'
(
)
*
+
,
-
.
/
0
1
2
3
4
5
6
7
8
9
:
;
<
=
>
?
@
[
\
]
^
_
`
a
b
c
d
e
f
g
h
i
j
k
l
m
n
o
p
q
r
s
t
u
v
w
x
y
z
{
}
~
¡
¢
£
¤
¥
¦
§
©
«
®
°
±
¶
·
»
¿
×
æ
ð
÷
ø
þ
đ
ħ
ł
œ
ʼ
α
β
γ
δ
ε
ζ
η
θ
ι
κ
λ
μ
ν
ξ
ο
π
ρ
σ
τ
υ
φ
χ
ω
а
б
в
г
д
е
ж
з
и
к
л
м
н
о
п
р
с
т
у
ф
х
ц
ч
ш
щ
ъ
ы
ь
э
ю
я
є
฀
‐
‒
–
—
‘
’
‚
“
”
„
†
‡
•
′
‹
›
⁄
€
↑
→
↓
↔
∀
∂
−
√
∞
≈
≤
≥
■
□
►
●
♦
♪
♫
➥
人
出
品
土
字
幕
影
煤
组
视
魯







�
the
to
of
you
and
in
that
it
is
for
on
this
we
be
with
not
what
have
are
me
no
##s
he
as
was
do
your
my
all
by
can
or
re
but
at
they
there
know
don
so
if
from
just
out
will
like
here
an
which
get
up
one
about
right
has
she
ll
european
now
him
go
been
should
how
would
well
commission
shall
article
who
got
come
her
think
when
time
want
see
our
where
good
were
us
##ing
more
regulation
did
yeah
his
them
ve
oh
other
take
member
mr
need
let
why
any
okay
some
back
their
these
##ed
must
had
going
gonna
down
could
may
its
only
states
also
look
then
into
make
very
council
say
way
than
people
tell
ec
man
those
because
something
##d
union
hey
##e
over
two
new
am
first
too
yes
really
didn
##a
such
community
##y
said
work
give
little
president
use
after
never
made
under
even
before
mean
##ly
off
parliament
thank
##er
sorry
much
does
state
report
still
last
help
directive
years
sure
decision
please
between
day
eu
information
##t
find
thing
doing
put
##o
being
##n
annex
place
##r
life
countries
call
used
love
again
point
anything
believe
through
year
products
part
same
god
having
maybe
long
great
case
measures
done
within
better
three
10
set
##l
following
name
keep
nothing
market
without
committee
europe
home
talk
own
important
number
thought
world
policy
accordance
order
away
many
things
each
house
uh
sir
most
therefore
always
particular
agreement
stop
##i
regard
everything
both
every
another
around
wait
national
oj
night
course
today
already
system
##es
told
means
against
feel
referred
economic
old
however
support
guy
money
ever
public
won
question
end
general
since
common
12
kind
leave
country
financial
might
human
provided
rules
treaty
shit
fuck
development
guys
rights
certain
taken
lot
found
aid
ask
fucking
real
##in
necessary
second
fine
next
coming
left
eec
together
hell
enough
data
level
group
big
during
conditions
doesn
while
nice
possible
adopted
stay
authorities
father
kill
social
hear
period
understand
whole
once
bad
best
matter
20
including
wanted
remember
fact
problem
working
someone
until
cannot
yet
##on
happened
taking
listen
hope
wrong
paragraph
control
show
respect
given
isn
11
##m
third
least
looking
car
talking
30
dad
dead
open
actually
security
different
girl
date
job
2006
law
##c
high
called
proposal
start
came
area
##al
patients
##ers
trying
ensure
care
bring
force
days
getting
else
few
clear
provisions
special
wanna
protection
concerned
family
mrs
move
2004
action
15
try
change
services
procedure
seen
situation
far
took
hand
programme
hi
international
cause
specific
##h
son
million
thanks
##p
mind
able
health
whether
head
trade
idea
application
##2
friend
cooperation
heard
political
yourself
basis
morning
women
ok
2005
gotta
months
mother
account
free
men
product
future
appropriate
saw
food
less
live
view
##k
baby
##0
went
business
risk
meet
subject
##1
energy
opinion
run
hold
boy
children
five
further
needs
everyone
ready
room
mom
ago
office
whereas
making
position
##g
members
blood
issue
party
water
amended
wasn
2003
body
wouldn
2007
knew
##3
deal
full
apply
non
ii
requirements
##ic
play
line
plan
process
legal
2002
##5
united
type
based
hello
soon
court
power
pretty
four
saying
2000
authority
guess
treatment
side
wish
list
production
##en
huh
safety
##us
provide
alone
hard
mg
government
anyone
either
concerning
tomorrow
commissioner
company
minutes
person
woman
later
turn
killed
##6
present
applicable
probably
##b
##u
available
25
quite
single
laid
miss
bar
says
wants
14
ain
makes
reason
##4
small
wife
true
gone
##an
pay
service
areas
december
exactly
fight
hours
close
using
implementation
management
welcome
##ia
friends
happy
week
example
face
debate
doctor
die
##ting
2001
lost
haven
police
check
tonight
##or
13
form
eur
##9
1999
serious
sector
2008
times
activities
16
budget
above
000
official
section
thinking
##7
six
total
##te
framework
looks
watch
death
gentlemen
vote
young
brother
citizens
light
myself
##ion
bit
establishing
problems
school
value
transport
comes
##ation
half
##man
june
um
access
heart
industry
##ie
ladies
whatever
##le
##ity
according
finally
##ment
interest
read
2009
amendments
dose
air
known
required
research
gave
price
test
##is
costs
meeting
door
though
de
joint
amount
everybody
asked
become
established
effect
cases
damn
table
thereof
kids
50
behind
31
reference
relevant
happen
outside
couldn
act
effects
war
18
parties
animal
terms
100
kid
late
increase
supposed
chance
knows
stuff
continue
met
trust
phone
##8
code
somebody
##able
brought
answer
moment
crazy
word
safe
institutions
hands
legislation
republic
white
worry
##rs
17
competent
field
due
easy
term
considered
hit
major
quality
rest
issues
sit
2010
articles
minute
stand
speak
##th
environment
points
24
lord
past
words
cut
forward
internal
rate
technical
beautiful
goods
longer
systems
rather
relating
21
agricultural
inside
per
dr
fire
particularly
questions
employment
role
weeks
sent
excuse
##f
almost
companies
hurt
rapporteur
step
child
started
resolution
january
pursuant
request
seems
eyes
forget
goes
shut
upon
##x
july
local
amendment
##z
carried
environmental
nobody
programmes
bank
22
along
import
result
ass
enter
current
include
results
responsible
solution
training
afraid
agree
allow
especially
send
19
procedures
duty
greater
eat
perhaps
progress
attention
shot
##ies
drink
mine
resources
regions
lead
animals
related
text
march
central
involved
proposals
directly
regional
strategy
behalf
export
game
imports
captain
city
needed
road
break
communities
follow
gets
decisions
key
sometimes
truth
##ne
##v
effective
increased
madam
criteria
indeed
others
clearly
prices
town
##ry
competition
proposed
justice
address
granted
levels
funds
mm
principle
save
front
maximum
october
tax
itself
story
waiting
covered
final
honey
drive
em
additional
anyway
living
rule
positive
purpose
main
aren
telling
evidence
private
share
ten
active
decided
responsibility
waste
regards
fun
00
approval
basic
peace
##se
applied
assessment
investment
jack
objectives
received
replaced
##ted
administration
brussels
large
agreements
daughter
alive
died
yours
although
operation
towards
##ate
ahead
april
organisation
protect
sleep
2011
favour
weight
##ine
land
approved
chapter
sound
##ling
certainly
sister
28
black
communication
23
couple
entry
vehicle
##ness
##nt
bye
difficult
figure
29
authorisation
sense
whose
approach
customs
standards
agency
promise
return
tried
walk
cover
reasons
##ce
except
objective
unless
cost
opportunity
team
cool
takes
september
standard
##tion
convention
john
##ch
fishing
board
##ble
anymore
hour
lives
##re
follows
running
values
various
book
month
changes
freedom
regulations
studies
among
lose
normal
paid
personal
paper
pressure
strong
accept
girls
implementing
news
jesus
marketing
reach
red
equipment
gun
low
monitoring
project
funny
individual
several
trouble
boys
capital
france
administrative
feeling
top
policies
bitch
defined
agreed
foreign
region
significant
society
age
education
euro
producers
purposes
##less
choice
fixed
fund
medicinal
mentioned
pick
minimum
november
assistance
existing
contact
hate
reports
guarantee
kingdom
submitted
essential
lady
presidency
sign
agent
stupid
##ge
benefit
hot
investigation
27
consider
##el
negotiations
##ful
annual
iii
projects
impact
##ous
addition
bed
cross
fast
growth
building
importance
short
dear
sugar
asking
groups
married
seem
fully
persons
##ter
26
gas
listed
disease
interests
parents
sort
40
leaving
limit
bodies
context
intended
milk
often
ship
equal
instead
journal
ml
nature
class
giving
measure
##um
containing
natural
##ping
##w
affairs
himself
across
germany
actions
ah
works
anybody
aware
content
fisheries
hair
markets
higher
message
study
credit
origin
##ra
fall
offer
potential
happens
##st
buy
fish
kept
matters
substances
binding
document
pain
principles
changed
documents
holding
sick
ground
husband
instruments
south
themselves
worked
complete
review
shoot
2012
french
##ton
experience
regarding
held
ma
supply
activity
hang
workers
##ts
capacity
method
moving
parts
response
##ure
daddy
meat
oil
prepared
interested
nor
dog
seven
accession
completely
glad
included
poor
king
catch
global
similar
##ma
##ty
cold
dinner
early
achieve
concerns
crisis
north
protocol
provides
sounds
adopt
box
network
standing
entire
added
below
calling
eye
calls
provision
##ised
border
draft
external
middle
98
direct
thus
##est
currently
fundamental
material
range
##it
carry
dangerous
east
specified
touch
democratic
hmm
allowed
remain
96
contribution
create
otherwise
lie
territory
concern
limited
none
reduction
staff
##ive
letter
plant
pass
playing
secret
absolutely
clean
fair
fear
shouldn
somewhere
careful
co
earth
february
ones
practice
sex
street
whoa
associated
drop
injection
operations
recent
yesterday
##ant
agriculture
civil
sitting
stage
kg
plans
reading
wow
anti
bull
consumer
note
round
treated
boss
conference
crime
decide
guidelines
improve
expect
happening
minister
perfect
presented
self
shown
simply
##son
95
laying
insulin
luck
military
relations
1998
2013
eight
expenditure
vehicles
##ist
duties
exchange
heading
history
payment
till
amending
event
issued
lower
reported
scheme
space
bet
green
overall
scientific
##ve
american
establish
population
processing
sea
starting
worth
##ar
##na
##ro
93
declaration
murder
setting
species
felt
mark
meant
medical
structural
substance
##tic
analysis
detailed
hospital
initiative
music
neither
organisations
scared
##ur
circumstances
clinical
explain
promote
##ke
difference
join
package
picture
relationship
win
##as
##land
90
allah
efforts
notice
prevent
record
subparagraph
america
authorised
coffee
patient
##la
cell
file
majority
meaning
reform
size
straight
turned
##age
economy
floor
immediately
materials
model
representative
unit
1996
1997
language
missing
relation
charge
conclusion
nuclear
pull
reduce
voice
wine
##ary
compliance
developing
eea
functioning
balance
kidding
scope
##de
closed
consumers
failure
knowledge
officer
reduced
seriously
statement
##id
hurry
insurance
jobs
aim
com
produced
seeing
status
60
average
connection
lack
learn
piece
powers
stability
sweet
dream
evening
reached
card
speaking
vessels
voted
writing
inform
previous
publication
technology
worse
write
80
acting
financing
italy
sales
written
events
##ck
##ise
ireland
likely
target
ourselves
tel
totally
1995
democracy
bear
spent
##ated
##les
achieved
iv
loss
press
##ped
91
92
adoption
beginning
develop
looked
mission
priority
release
signed
establishment
excellent
labour
##et
##ism
dumping
throughout
designed
doubt
draw
daily
dialogue
methods
mouth
movement
##der
enlargement
former
nine
require
skin
transfer
billion
site
add
drug
film
laws
near
oral
buddy
expressed
ride
amounts
feet
forms
implemented
throw
undertaking
weren
avoid
extent
fresh
miles
negative
obligations
addressed
china
dude
funding
obviously
post
violence
weird
contains
david
expected
published
sam
types
attack
feed
item
original
station
agenda
born
determined
fault
focus
opportunities
quickly
russia
commitment
extremely
mistake
spain
arrangements
caused
ex
imagine
prior
therapy
york
blue
calm
charlie
contract
97
cash
created
simple
sufficient
watching
west
##ian
applications
christ
copy
fat
industrial
tests
##ial
prison
recommended
accident
actual
christmas
payments
beat
beyond
computer
director
followed
handle
rural
turkey
unfortunately
##00
applicant
comply
instrument
legislative
receive
sell
train
##per
benefits
chinese
direction
double
partner
pre
commercial
drugs
fix
medicines
speed
tom
##da
al
compared
deep
driving
frank
function
lucky
bill
comments
enjoy
indicated
##rd
anywhere
caught
certificate
grant
increasing
proper
##os
acts
base
broke
consumption
joe
performance
seat
sustainable
45
gives
nations
volume
wake
weapons
wonder
##at
##ps
accepted
dark
loved
un
acid
medium
storage
climate
described
entirety
judge
smart
source
thinks
whom
concluded
count
interesting
michael
mike
slow
spend
##ors
##way
bag
despite
elements
providing
putting
raised
talked
##ent
accounts
condition
coordination
evaluation
finish
german
intervention
master
operating
participation
##to
conclusions
emergency
limits
undertakings
##ir
70
numbers
sectors
choose
disorders
killing
title
uncle
window
##ol
demand
worried
army
partners
quiet
showed
##ct
##il
##nce
advice
cop
emissions
enable
mention
possibility
refund
visit
##ey
##tor
electronic
exposure
glass
informed
sight
##ng
cohesion
damage
names
shows
stick
terrible
usually
wonderful
##ving
budgetary
definition
fuckin
spirit
summit
wall
appear
begin
chief
combination
criminal
farmers
flight
independent
lying
paragraphs
saved
steel
swear
##ner
##ri
blow
dance
definitely
drawn
restructuring
van
##ler
500
accordingly
aspects
association
keeping
quick
risks
submit
ways
contained
directives
fighting
fruit
integration
machine
quantities
##led
alright
build
busy
internet
opening
tired
##dy
command
cultural
huge
media
prejudice
proud
radio
sale
store
##ring
appreciate
bought
contain
furthermore
gold
stopped
twice
units
35
arms
broken
centre
college
consequences
english
evil
maintenance
secondly
suppose
##ities
##ns
ball
hotel
implement
push
raise
ring
##va
exercise
lisbon
maintain
operators
partnership
producer
stock
##me
category
culture
entered
lay
observed
plane
prove
rates
sold
75
contracts
efficiency
george
holy
obtained
rise
solidarity
stated
tablets
zone
##ta
feels
portugal
recently
victims
##ding
consideration
fly
forgive
hide
impossible
representatives
tv
##ged
200
developed
exist
goddamn
lines
moved
transparency
via
compromise
controlled
correct
governments
illegal
initiatives
mad
operator
99
birthday
practical
structure
wear
##men
approximately
factor
property
rich
speech
##ular
details
manner
netherlands
opened
track
33
controls
dealing
discussion
forever
fuel
kiss
planning
steps
amazing
creation
enterprises
ha
hearing
initial
ms
net
passed
professional
tariff
##j
##ll
32
birth
brain
description
equivalent
hereby
instance
italian
killer
movie
priorities
veterinary
wide
yo
defence
finished
heads
imposed
institution
led
obligation
surveillance
##ide
87
ability
besides
foot
forgot
inspection
phase
pleased
specifically
threat
##cy
##ds
##ning
adverse
afternoon
british
domestic
effort
falling
helping
lt
monetary
reality
traffic
art
contribute
express
fellow
holder
identified
mail
paul
romania
task
trip
august
colleagues
greece
infrastructure
pack
page
primary
seconds
travel
truck
##ium
##ze
apart
appears
hasn
lieutenant
namely
notified
ran
##isation
##ls
ben
closer
club
cops
corresponding
discuss
earlier
excluding
failed
peter
powder
recognition
regular
success
##tive
clothes
danger
department
latest
lunch
managed
moreover
pleasure
proceedings
reactions
regulatory
route
search
star
300
affected
committed
debt
device
distribution
ensuring
finding
growing
island
missed
notification
queen
resulting
strange
worst
ya
1994
boat
capable
commander
ray
recovery
signs
encourage
park
requires
scale
##ka
65
checks
claim
construction
fit
medicine
option
orders
produce
rare
tender
elections
goodbye
heavy
mama
preparation
reporting
requested
seek
strength
##ard
africa
arm
recognised
registered
sake
warning
bloody
colonel
exceeding
presence
protected
quota
realize
separate
smell
surprised
wedding
1993
boyfriend
chain
chemical
codes
discrimination
influence
innovation
mary
played
remains
secure
drunk
factors
girlfriend
ice
introduced
originating
plus
schemes
severe
summer
##bs
94
applying
confidence
delay
dry
poland
quantity
signal
stuck
supported
testing
##ible
##nd
administered
advantage
conflict
eligible
exceed
firstly
honor
includes
lovely
mass
max
russian
sleeping
spanish
spot
useful
##red
completed
darling
entitled
income
magic
scene
suggest
sweden
wearing
##ms
36
43
arrest
assets
paris
periods
sources
weapon
##king
adequate
apartment
applies
entity
grand
hundred
introduction
provisional
raw
receiving
renal
treat
users
waters
##ue
affect
crew
filled
guarantees
la
mess
ought
recommendations
symptoms
tonnes
##ious
##ized
##ley
##sh
banks
combined
constitution
creating
exporting
improved
james
licence
linked
losing
motion
physical
possibly
powerful
recommendation
voting
##sa
congratulate
examination
harry
immediate
poverty
previously
proof
registration
tape
terrorism
##line
##tes
battle
bus
confirmed
denmark
destroy
determine
finance
grounds
indicate
records
rock
surprise
##ize
##out
appropriations
cancer
carrying
developments
difficulties
eastern
hungry
listening
relax
remind
##ee
alternative
asshole
books
businesses
characteristics
flying
mutual
pregnant
regime
remove
sample
sensitive
##ber
##ration
delivered
honest
idiot
improvement
loans
offered
planned
prepare
sun
tough
uniform
uses
walking
bastard
bullshit
commitments
continued
easier
introduce
items
lived
liver
mediterranean
networks
operational
percentage
placed
places
quit
tasks
thousand
##ified
##io
##ut
aimed
degree
driver
ecu
horse
judgment
labelling
leaflet
motor
thousands
truly
unemployment
unto
##pe
##ries
##ss
adjustment
agents
allocated
became
camp
checked
church
crap
dogs
effectively
extended
greatest
grow
guard
iron
sad
secretary
suspension
vessel
##cs
##head
37
beer
built
concentration
detective
doses
ecb
empty
families
forced
fourth
governing
grab
invitation
lawyer
licences
location
marry
series
serve
soul
supporting
trial
##ally
##ance
##ging
challenge
classification
differences
frequency
highly
parliamentary
practices
properly
represent
smoke
surface
temporary
tree
##go
##ical
disposal
engine
manufacturer
nick
options
repeat
statements
##rate
agencies
block
bringing
chamber
combat
generally
hereinafter
improving
match
path
prevention
requirement
roll
ships
##up
##ver
alcohol
asylum
fucked
grace
helped
jimmy
promoting
regret
sheriff
sodium
surely
borders
bunch
calculated
consultation
currency
dress
integrated
jail
jim
joke
lock
refunds
taste
##ile
camera
cat
challenges
clark
collection
competitiveness
cute
discussions
dying
faith
federal
machines
ministers
reasonable
upstairs
wild
carefully
contracting
deliver
derogation
discussed
drinking
eating
leaves
lots
luxembourg
nervous
obvious
##ad
aircraft
coated
eggs
existence
exports
forces
heat
henry
manufacture
named
session
showing
situations
stress
##rt
##sed
##ties
39
admit
belgium
certificates
closely
extra
favor
figured
healthy
identification
metal
planet
race
restrictions
sing
statistics
staying
victim
##by
##ice
blame
candidate
gift
locked
performed
promised
river
temperature
whoever
##co
##ha
##house
49
absence
bottom
categories
constitutional
contrary
danny
entirely
fell
leading
memory
owe
sarah
views
weekend
44
alex
assume
cars
changing
destination
leader
mainly
northern
paying
refer
respond
science
successful
trading
transmission
##ite
appeal
cn
consistent
designated
doc
hole
london
mmm
port
selling
sergeant
solutions
wind
##ability
apparently
bird
blind
button
chosen
detail
firm
geographical
ideas
image
leg
lies
loves
mechanism
operate
plants
statistical
supervision
tabled
user
usual
wondering
##lo
##mo
##ot
african
angry
burn
charges
enforcement
guns
israel
lays
notes
occur
ooh
personally
register
rid
understood
version
##ating
##hip
##om
##one
46
adult
attempt
constitute
efficient
flow
link
meetings
noted
picked
positions
song
vice
##ence
##ki
##res
##sing
cells
chair
considers
dealt
determination
escape
fraud
jake
shares
spread
substantial
sweetie
turns
urgent
video
##ings
##ned
48
85
airport
bomb
bridge
bulgaria
congratulations
experts
fixing
investments
judicial
jump
keys
learned
nevertheless
noise
plasma
selected
##ations
##ions
##ising
##ris
advance
austria
believed
bob
cereals
compensation
crucial
instructions
invited
liked
monitor
multiple
packaging
reaction
shop
spoke
strike
understanding
vital
warm
bigger
competitive
complex
dropped
everywhere
facilitate
facing
india
injury
learning
notify
nuts
perspective
pop
program
transactions
willing
##ga
cfsp
complicated
conduct
cyprus
euratom
files
hiding
innocent
profit
reducing
seed
sides
strategic
tony
turning
upset
##be
belong
considerable
considering
finland
grateful
identity
jerry
pollution
smes
tea
wto
yep
##ger
55
butter
christian
claims
consequently
dreams
en
figures
flag
fool
guilty
imported
knowing
legs
murdered
pension
rejected
stocks
tells
unable
witness
##ba
34
accounting
chuck
client
contributions
delivery
deserve
electricity
intend
lights
likes
outcome
thou
wishes
##do
##ks
chairman
convinced
declared
farm
fbi
institutional
iraq
permanent
prime
teach
unacceptable
##her
##ina
##ky
##ul
##un
1992
acceptable
annexes
becoming
concept
continuing
dare
delegation
design
extend
extension
female
flexibility
gay
laboratory
martin
modified
references
sum
suspect
tight
tommy
valid
##ins
comment
dollars
dutch
facilities
findings
identify
normally
preparations
propose
removed
san
vegetables
##ded
##gy
##ier
aside
beef
conducted
conformity
connected
czech
destroyed
distance
feelings
inter
mommy
nomenclature
sections
sexual
shoes
thy
trials
virus
##che
67
89
band
brothers
checking
color
dick
entities
formal
languages
manage
placebo
renewable
stole
transitional
uk
youth
##back
##ff
##gs
42
assembly
broad
communications
fired
latter
mandate
marriage
pants
personnel
pilot
professor
rapid
richard
vision
##board
##ons
afghanistan
allowing
charter
depends
diseases
display
duration
eh
examine
folks
games
hero
involving
kick
laugh
papers
technological
terrorist
traditional
##ja
##ker
##lt
##yl
01
bone
contents
conversation
derived
dna
drawing
employees
exception
haemoglobin
justified
mate
recorded
shirt
strengthen
weak
##ca
##ft
##ish
##op
##ow
##rn
attached
covering
ends
fulfil
heaven
iran
located
maritime
precisely
qualified
quotas
requests
sentence
super
sweetheart
##am
##ments
##my
answers
awful
enemy
error
highest
hoping
onto
presentation
released
satisfied
stone
technologies
41
bathroom
beach
began
breakfast
breath
continues
effectiveness
facts
greek
immigration
mixed
officials
particulars
processed
promotion
reply
rescue
revenue
throat
universal
vi
vial
wrote
##field
##nts
##ny
##ological
accompanied
afford
bleeding
coach
cooperate
critical
cry
examined
expression
familiar
favorite
hadn
older
pulled
saving
seemed
shared
signature
suddenly
taxes
tobacco
wood
##que
##ten
##uring
billy
bound
breathe
brings
character
charles
comprehensive
cream
doors
exported
fill
flat
gain
harm
herself
humans
individuals
mum
nose
participate
prefer
reforms
samples
sized
soldier
teacher
##ulation
150
alfa
argument
arrived
brown
cap
carbon
cards
demands
easily
equality
faced
guidance
manager
marks
naturally
organised
precautions
returned
rice
significantly
soldiers
split
stands
steal
structures
subsequent
suit
syringe
ye
zero
##cing
##med
##no
acp
auditors
bottle
column
components
conclude
cup
excessive
faster
kosovo
lab
label
map
measured
officers
pictures
revision
subjects
university
western
##and
##ay
78
88
amsterdam
breaking
burden
dirty
engaged
etc
incorporated
iu
letters
monday
nearly
obtain
pig
pointed
rail
remaining
sets
suitable
surgery
thee
treaties
undertaken
##ni
38
demonstrated
element
forest
granting
infection
neck
respectively
robert
shh
suffered
tools
##ane
allocation
buying
chicken
confirm
desire
kitchen
residence
responsibilities
settle
specify
suffer
television
textile
trick
verification
whilst
##let
##li
52
amend
ban
clearance
deemed
determining
discharge
discussing
expiry
foodstuffs
friday
meal
mercy
merely
nowhere
participating
perfectly
pool
portuguese
stories
taught
teeth
tourism
ukraine
##ably
##des
400
66
awareness
balanced
barely
enterprise
fail
fields
firms
keeps
maintained
pact
passengers
primarily
recognise
reflect
refuse
runs
season
seeking
skills
st
survive
upper
weather
##nie
##ress
##vin
assure
awesome
aye
batch
center
classified
communicate
corner
finds
guaranteed
headed
invite
load
male
needle
object
passenger
pieces
recall
spoken
stable
tie
trafficking
transit
walter
##burg
##ization
##ron
##ster
absolute
adopting
biggest
bother
calculation
clock
core
expert
frozen
ghost
involve
knock
losses
mechanisms
mountain
pen
permission
screw
steve
suffering
supplies
twenty
##em
##im
##ition
##tors
##well
1990
achieving
ad
allows
birds
defend
division
er
eventually
gross
honourable
host
hungary
irish
jane
knife
liability
lied
ltd
marine
ombudsman
outta
pharmaceutical
pregnancy
processes
recital
ridiculous
schengen
sending
shift
shooting
sky
spring
students
transferred
°c
##ants
##ford
##lin
##py
##the
##ual
amy
appendix
arrested
chris
crying
cutting
hall
inclusion
industries
leaders
millions
motherfucker
opinions
permit
prince
sheet
solid
stored
sub
summary
yellow
##ade
##ah
##฀
aims
campaign
employed
executive
false
handling
horses
increases
manual
noticed
ordered
protecting
selection
spending
targets
wet
##els
##ig
##ining
##ncy
##rin
##ug
62
77
assist
background
combating
component
concentrations
humanitarian
indications
infusion
membership
monster
opposition
perform
preliminary
prisoners
producing
rome
solve
sooner
spare
supplied
wash
##dle
##ham
##ld
##zed
assess
channel
composition
devil
eddie
engines
exists
flowers
generation
il
improvements
indication
inserted
interim
japan
length
loan
occasion
organic
outer
represents
schedule
silver
tail
talks
thursday
##bly
##bo
##rated
##tal
##ured
414
47
appointed
attacked
bearing
bureau
causes
claire
compatible
concrete
constitutes
deleted
financed
format
freeze
goin
hanging
intention
interpretation
ip
launch
liberalisation
lift
mostly
placing
plenty
purchase
roger
shadow
smaller
statute
walked
##ening
##ii
##of
##ory
##q
61
81
audit
balls
bro
century
cheese
competence
constant
emission
expecting
fifth
forgotten
fulfilled
gender
genuine
globalisation
hardly
http
interview
involvement
islands
jurisdiction
margin
nurse
offering
online
proceed
rain
roof
scott
shape
tablet
taxation
vat
village
wise
##ius
##mer
##rating
##ray
##sion
##sy
##ti
##ward
51
aspect
bell
bobby
breast
brilliant
collected
comfortable
devices
doctors
election
estimated
experienced
football
gate
gotten
models
passport
pharmacist
religious
southern
square
strengthening
style
sunday
supplementary
whereby
##ics
##ists
##lla
##logy
##ric
##tin
72
andy
applause
circle
customers
define
desk
dressed
ed
expensive
fingers
friendly
goal
hence
ill
installation
laughing
mexico
mobile
multilateral
photo
politics
strict
strongly
uncommon
whenever
withdrawal
yourselves
##ain
##pa
##tt
##ude
ambitious
apologize
assessed
beg
bovine
breathing
budgets
chronic
comparison
daniel
danish
dl
ear
functions
grown
impression
moon
resistance
resolve
select
subsidies
swedish
unknown
walls
##berg
##ction
##ery
##ko
##mp
##tions
##ved
1991
71
behaviour
bilateral
bullet
confused
disaster
exceptional
exemption
exit
guide
honour
liar
recognize
rightly
sanctions
securities
sites
stood
streets
stronger
sufficiently
sword
welfare
##ans
##ens
##izing
##lly
##nic
79
armed
asia
asleep
cake
career
centres
circulation
claimed
cycle
dates
desert
doin
eric
falls
feeding
indent
indicators
iso
latin
lists
opposed
ours
pigs
proportion
repealed
rose
satellite
shame
somehow
starts
supervisory
switch
woods
##ak
##ator
##ened
##lar
##ming
##pers
##time
##tte
##ung
##wood
##ya
calendar
certification
crimes
dan
ears
england
facility
hired
honestly
horrible
id
impairment
kate
kinds
percent
sees
soft
stolen
therein
witch
##ald
##ates
##down
##ore
##sis
1234
alert
attacks
attitude
aunt
belongs
burning
citizen
fibres
grade
initiation
johnny
machinery
mobility
nationals
occurred
prc
profile
referring
refused
represented
sampling
suicide
thereby
trees
wheel
##ert
##gle
##itis
##rl
##ses
##sk
56
57
award
clients
coast
collective
cuts
dave
egg
enormous
famous
harmonisation
hundreds
lately
lithuania
nos
organization
permitted
realise
regarded
stayed
storm
territories
thomas
transparent
vulnerable
##kin
73
83
accidents
adults
americans
amongst
becomes
bucks
charged
colleague
database
ended
examples
incredible
leads
loose
measurement
opposite
pocket
quarter
relative
satisfy
student
subsidiarity
supports
thoughts
tool
withdrawn
##cted
##ess
##ked
##mi
##ville
82
alan
appointment
babe
chose
chuckles
cleaning
concentrate
courage
cousin
decrease
destruction
exclusively
exposed
fate
freedoms
glucose
harder
hook
increasingly
journey
lake
mayor
modern
obstacles
officially
owner
pardon
player
preparing
protein
pure
rachel
refugees
respected
slovenia
submission
telecommunications
telephone
tested
06
1000
59
assigned
basically
belt
dated
digital
disappeared
dosage
el
elderly
excluded
explanation
grave
helps
hidden
incident
issuing
korea
letting
maintaining
offers
parliaments
passing
polish
prescribed
princess
principal
rat
ratio
rats
shake
transition
washington
##ages
##gen
##ght
##ify
##rine
adam
allergic
alpha
angle
associations
aviation
beings
believes
chemicals
co2
demonstrate
dependent
deputy
difficulty
electric
emma
exact
fleet
fr
gear
hat
hepatic
impose
inspector
japanese
license
links
malta
minorities
ocean
properties
pursue
rash
replace
respective
solvent
turkish
viii
##ibility
##lic
##mine
##ncies
##ram
##ran
##rous
##rry
02
64
68
acceptance
anna
arguments
arthur
atlantic
babies
carter
committees
counter
da
diversity
dumped
dust
explained
farming
holdings
hunt
independence
ingredients
loud
manufacturing
marked
ordinary
reject
safeguard
smile
snow
stomach
supplement
tenders
urban
voluntary
wherever
##lan
##logical
##uting
84
advanced
berlin
brave
bright
cares
caution
croatia
definitive
dig
district
divided
documentation
excited
fever
flexible
freak
funeral
infections
interaction
kyle
launched
lee
legitimate
minor
mistakes
norway
oliver
output
penny
pray
qualifications
screen
seats
serum
sport
threw
ugly
urge
votes
##au
##bie
##bing
##he
##ves
76
affecting
alarm
attorney
buried
covers
decreased
dimension
discovered
electrical
extract
genius
olive
pissed
precise
refers
remarks
restricted
ryan
sharp
strasbourg
stressed
tip
trained
tuna
usa
zones
##book
##ets
##table
##ux
##val
53
bedroom
cast
closing
divorce
downstairs
drinks
edge
elected
fake
gang
garden
hypoglycaemia
indian
insane
kinda
nation
observations
owned
plastic
procurement
railway
reaching
shower
sixth
stars
sudden
threshold
ticket
##000
##ched
##ell
##ied
##load
##ock
##ub
##vo
120
58
63
adjustments
aids
approve
bay
beauty
bite
boring
brian
classes
cook
dollar
economies
efficacy
emphasise
et
execution
faces
fan
fiscal
fishery
forum
input
jackson
jealous
lily
monitored
moves
ow
palestinian
penalty
pete
piss
plays
pro
puts
rapidly
remote
resolutions
rough
row
settings
settlement
sharing
speakers
spell
steady
texts
winter
##gate
##gue
##late
##ose
##po
##tis
##ulated
##und
05
86
cities
courts
democrats
describe
dispute
efta
essentially
exploitation
goals
ho
irbesartan
kevin
lodged
lonely
meets
messages
migration
mood
nah
partial
precious
reserve
restaurant
rubber
sara
scary
schools
secrets
slovakia
suggested
tongue
##10
##ci
##ew
##ians
##ral
##ria
##room
250
apparatus
arrangement
brief
buildings
cameras
ceiling
clarify
contacts
crops
depth
governance
hire
hiv
importers
joined
kidney
largest
nr
pal
platform
relief
residue
sat
score
sole
theory
tiny
toxicity
trace
ultimately
vegetable
victory
wire
www
##30
##ches
##ight
##ination
##ines
##ney
##nia
##ud
##za
##°
abandoned
arising
banking
bars
cas
county
cure
deficit
diabetes
disappear
estate
exciting
forth
fought
governor
guest
hearts
intergovernmental
intravenous
jean
legally
movies
odd
organisms
participants
phil
plate
pretend
prev
rating
retail
sacrifice
sean
served
sexy
shipping
socialist
strategies
studied
subsequently
susan
techniques
thereto
thirdly
typical
updated
visa
##ap
##gie
##ken
##mes
##osis
##pt
##water
adjusted
advisory
alia
announced
asset
beneficiary
burned
complaint
completion
consensus
credibility
decisive
deck
emphasis
engage
estonia
fallen
finger
height
howard
liquid
lucy
miracle
mmol
monkey
naked
olanzapine
parking
peoples
pills
plenary
proposing
quantitative
rolling
ruin
seeds
serbia
smoking
ted
urgency
verify
watched
wheat
younger
##ase
##istic
##ren
angel
chest
chloe
clause
conflicts
disappointed
emily
establishments
fancy
grandma
inspections
introducing
jason
juice
larger
massive
nope
overcome
parent
profits
punishment
recording
remained
savings
screaming
specifications
subcutaneous
suck
tower
toys
transaction
trap
violent
##cal
##han
##hi
##ivity
##lia
##mic
##over
##point
##right
##rk
##ways
##work
54
600
74
acute
advised
automatically
boxes
canada
chase
chocolate
choices
constantly
continent
convince
corruption
crash
depending
elimination
europeans
eurostat
exclusion
extraordinary
flesh
frequently
hunting
incurred
index
indirect
log
morgan
multi
offices
pan
parameters
picking
preventing
print
proposes
pussy
realized
regularly
remuneration
repair
rush
saturday
seventh
slept
taliban
tall
targeted
tour
unfair
unique
website
william
##50
##bar
##its
##rge
##ula
##vy
##zo
03
2014
69
adapt
alice
assistant
clever
comparable
deadline
decades
defense
duly
entering
excess
fees
gibbs
hopefully
ignore
insist
intra
landing
liberal
maria
minority
movements
negotiating
ongoing
pensions
popular
ports
poultry
rarely
replacement
representation
saint
satisfaction
sis
slowly
solely
stake
warn
wound
##ai
##eth
##ez
##ily
##ip
##our
##wing
##ys
09
aah
abby
additives
assessing
automatic
custody
deals
elsewhere
fantastic
flows
hank
hill
hurts
latvia
majesty
matt
numerous
photos
players
prize
rapporteurs
rent
restrictive
slaughter
sought
stopping
sucks
switzerland
therapeutic
trans
warrant
##71
##bi
##ea
##ees
##fied
##gan
##ined
##lle
##ology
##ony
##rian
##tus
##zing
ancient
badly
conservation
conversion
cotton
default
degrees
driven
enhance
europa
expenses
focused
foundation
gather
highlight
immigrants
laughs
louis
magazine
mental
mode
pet
prohibited
reductions
regulated
ruling
salt
shock
silent
strip
transfers
universe
unusual
valuable
vii
web
withdraw
##ag
##ella
##ents
##ette
##hood
##ification
##inate
##lation
##mark
##nes
##net
##ural
##you
1989
800
abuse
alliance
allowance
ate
authorisations
beneficiaries
bond
cab
cheers
commit
criticism
holiday
hoped
household
houses
infected
intelligence
jeff
knees
ls
luke
manufacturers
methyl
nato
nothin
pa
pattern
receipt
relates
renewal
secondary
senator
shoulder
smells
strictly
subsidy
visible
weekly
wolf
##20
##ative
##den
##ese
##lies
##lon
##mia
##otic
##unt
##ures
##use
attend
barriers
barroso
belarus
blew
butt
cabin
cent
cheap
continuation
customer
dancing
dating
dean
drivers
evaluated
fabrics
flights
gentleman
gods
handed
indicating
inhibitors
initiated
integrity
jackie
kelly
laura
lesson
lex
lisa
listened
los
managing
manufactured
marking
mix
muscle
noon
pages
pakistan
panel
partly
politicians
practically
rape
recovered
retain
returns
revealed
scare
silence
singing
spy
tank
territorial
tickets
touched
vaccine
##ac
##bility
##ces
##ene
##iff
##light
##ters
##ute
103
a5
actors
affair
bags
beam
beta
brand
cats
celebrate
coat
consisting
consulting
copies
cos
dies
dignity
donna
equally
factory
favourable
foods
gases
generations
gordon
hepatitis
importer
indicates
innovative
jamie
marketed
meps
mile
obliged
operated
packed
pair
poison
prescription
quote
ratification
revised
sighs
slightly
sons
sports
stations
suspended
sustained
synthetic
technically
trend
worker
##case
##cial
##gar
##ino
##lock
##ok
##oo
##ou
##ship
##sm
##ture
##zer
07
additive
appeared
arrive
assumed
austrian
barry
bike
bones
carrier
certainty
cia
cleared
coal
confidential
consent
convergence
declarations
dice
dried
eliminate
frame
goodness
grandpa
harmful
helpful
homes
horizontal
housing
incidence
joey
jordan
joseph
joy
larry
moderate
mouse
negotiate
papa
php
possession
premium
raising
removal
residues
retirement
scientists
secretariat
significance
somewhat
symbol
troops
vaccination
wealth
winner
woke
##asing
##cks
##fire
##ick
##ient
##sen
##ua
1987
acquis
airlines
balkans
bosnia
chloride
click
compulsory
continuous
corporate
curious
decent
deny
departure
detected
emea
encouraging
ending
fifteen
forestry
infringement
joining
maggie
peaceful
possibilities
resolved
scheduled
smooth
soil
someday
successfully
syndrome
tear
terminal
threats
tied
toilet
toxic
vocational
##01
##ab
##als
##ich
##inated
##ven
appearance
brazil
breach
california
carrie
cattle
civilian
compound
consequence
corrected
crowd
debates
delighted
deserves
di
doubts
egypt
fifty
freely
gdp
grew
hannah
iceland
importation
jenny
leather
lips
measuring
menu
mid
murders
navigation
opens
penalties
proved
pursued
repealing
repeated
rob
senior
sheep
shopping
struggle
substantially
succeed
swim
tackle
tragedy
trusted
##ctic
##cular
##ders
##heim
##icity
##las
##mond
##ners
##tch
##ther
acquired
affects
artist
assessments
borrow
carl
complainant
constructive
container
designation
diet
dirt
disabled
du
evaluate
eve
exceptions
expectations
greenhouse
inadequate
interinstitutional
jerk
lamps
loaded
memories
mountains
notably
radiation
representing
reviewed
rip
roads
ruined
satisfactory
settled
signing
simon
software
timing
tissue
validity
vast
wasted
wording
yard
μg
##19
##avir
##bed
##fully
##ica
##lus
##mide
##nny
##oid
##ov
##rc
##rch
##tan
##tation
##wn
##ying
2020
absorption
aquaculture
argued
arise
awake
backup
bat
belgian
blister
blocks
carton
castle
certified
communist
demon
equipped
estimate
exp
fax
features
fee
fires
fortune
gmbh
grants
hm
holds
institute
involves
isolated
ix
junior
liabilities
macedonia
madrid
mild
mister
nasty
nights
paint
patch
pending
pink
presidents
relate
sec
signals
struck
tables
terrorists
torture
tuesday
update
whore
##90
##ana
##aw
##ering
##ex
##ges
##ix
##oon
##ree
##tory
##uck
##via
299
adjust
bruce
candidates
cod
confusion
consulted
coverage
cow
damaged
destiny
disclosure
drove
dynamic
envisaged
genetically
goat
highlighted
jess
johnson
jury
largely
leo
meantime
minds
nationality
neighbours
outstanding
pillar
pizza
plain
pulling
resulted
rick
routes
santa
screwed
sensible
smith
survival
unfortunate
variety
visual
yarn
##atic
##gh
##gi
##ire
##ites
##kes
##lot
##rust
##ura
adding
allowances
annie
approaching
ashamed
audience
bid
bury
cm
commissioners
consists
counting
definitions
desperate
dump
economically
enemies
extreme
formula
giant
incompatible
investigations
investor
julie
justify
monthly
newspaper
nonetheless
observation
oils
plates
pride
priest
province
quarters
radar
react
rear
reliable
revenge
reverse
rude
semi
sin
speaker
suppliers
taylor
terry
thrown
timetable
tragic
violation
vis
weakness
weighted
wider
##bling
##ho
##ils
##jo
##oke
##ole
##rie
##teen
##tine
abnormal
accompanying
adolescents
airports
answered
argue
asks
authorise
availability
biological
clarity
coins
concludes
considerations
cooperating
coordinate
coordinated
dawn
disgusting
drag
earned
eib
enhanced
equity
es
exhausted
filter
forthcoming
gap
gary
headache
homework
hopes
immune
initiate
injections
jones
kicked
league
mandatory
mcgee
necessarily
painful
painting
piano
preceding
refusal
resident
riding
roy
silly
sometime
stranger
surrounded
talent
teaching
toast
transmitted
tunnel
underlying
vegas
victor
wanting
welcomed
witnesses
##11
##ach
##ato
##ception
##cher
##cia
##gon
##hin
##ifies
##ill
##itive
##name
##nder
##ust
##yard
aboard
acquisition
adapted
anne
approximation
bears
bow
bread
bse
burma
catches
cigarette
compare
criminals
dairy
deaths
desired
dioxide
europol
exclusive
exemptions
fairly
firmly
gradually
handsome
harmonised
imposing
installations
investigate
israeli
jacket
justification
le
lessons
neighborhood
ngos
nonsense
observe
prisoner
punch
random
regardless
relatively
robin
root
royal
scan
seal
slip
spp
strengthened
tears
tfeu
thief
thin
tracks
undesirable
windows
##12
##ack
##ball
##di
##fe
##hole
##ited
##matic
##pass
##sc
##tary
##vor
##yer
112
adequately
aw
baltic
basement
candy
causing
clay
collect
conciliation
conjunction
connect
consult
contractual
conventions
correction
correctly
crack
defeat
delegated
derogations
duck
ecr
endorse
escaped
expansion
extensive
failing
flash
freight
grandfather
happiness
hates
hazard
hungarian
imposition
intellectual
invented
jay
kills
kim
kyoto
livestock
minus
mixture
molly
nutrition
objection
objects
organizations
ph
pounds
ppe
pursuit
rooms
servants
shortly
specially
stealing
suspected
translation
trapped
unlike
virtue
voices
wing
worthy
##07
##31
##58
##ao
##cts
##ek
##ifying
##lis
##rley
##shed
##tein
##tle
##uff
##une
##yn
aaron
accurate
achievement
anaemia
angeles
artificial
assault
attempts
awarded
bastards
belonging
buck
cargo
chip
closure
complaints
compounds
couch
crossed
crystal
deeply
dumb
earn
enabling
ethnic
extending
fitted
foster
freezing
funded
gen
gorgeous
grey
guards
identical
images
impressive
insert
installed
interferon
invest
investors
jointly
maize
merry
midnight
multiannual
noble
packages
packing
pl
pot
printing
programming
promises
prospects
pushing
radioactive
recommend
restriction
returning
reveal
rings
rope
sheets
shuttle
speaks
supplier
sustainability
threatened
threatening
tradition
trigger
twelve
##23
##aking
##ast
##ec
##fer
##fish
##iest
##mate
##oy
##rable
##vent
##vers
04
accused
acknowledge
actively
addressing
advantages
advertising
albania
ambulance
authorization
bananas
begins
brake
bust
casey
champagne
chances
coherent
colour
commerce
complied
complies
conscience
cookie
criterion
demonstration
denied
distributed
educational
efsa
employers
enjoyed
enjoying
ethical
exchanges
fellas
formed
garage
georgia
golden
hazardous
insufficient
intends
jose
julia
lawyers
leadership
liable
lover
lowest
m2
mask
min
morocco
norwegian
occurs
parallel
patrick
personality
phones
postal
potassium
prohibition
providers
publish
racism
referendum
reminds
routine
sa
server
simplification
stipulated
topic
trash
treating
vacation
valley
vietnam
visiting
wines
##02
##18
##ale
##bel
##dal
##dge
##dt
##fa
##ib
##kins
##missible
##nk
##od
##pes
##rm
##sive
##tone
##vir
alien
amen
apparent
applicants
attractive
authorized
autonomous
avoided
avoiding
bang
barrier
baseline
brains
breakdown
breeding
cage
cardiac
cereal
chemotherapy
chicago
comb
comfort
compatibility
consistency
consultations
density
depend
doug
drew
eaten
encouraged
estimates
expense
fishermen
fold
folder
generous
genetic
greatly
hitting
hr
hunter
hydrochlorothiazide
incentives
kde
lamp
lo
loving
ministry
modification
mon
nancy
nathan
oxygen
pacific
presents
profitability
pushed
reflected
religion
resource
restore
reward
robbery
romantic
sand
scotland
secured
similarly
solved
stairs
undertake
verified
violations
wave
##art
##boy
##cent
##dra
##ein
##etic
##int
##key
##lf
##nne
##orn
##rative
##side
##ules
accessible
albert
alleged
alternate
ambassador
andrew
assisted
assurance
behavior
bored
bud
carriers
cave
citizenship
climb
closet
conferred
defining
deposit
dossier
eva
excipients
federation
forwarded
glasses
hereto
hostage
hydrocarbons
immunity
indicator
lane
library
lion
metabolism
mixtures
monsieur
moral
nail
nerve
notwithstanding
occupational
oecd
panic
pie
presenting
prosperity
protective
pt
randy
reception
recitals
rejection
remembered
restraint
ritonavir
roots
safer
script
separately
sisters
spirits
stages
steven
stops
suits
terror
texas
theme
thirty
throwing
tube
unnecessary
viable
visited
volumes
waited
##13
##16
##box
##cies
##con
##ctor
##gging
##gling
##hing
##ished
##ita
##lay
##reed
##roll
##rse
##ui
##vation
08
1988
acknowledged
acted
addresses
annexed
antibiotics
arab
beast
borne
branch
bullets
chick
concomitant
condemned
courses
davis
derek
detection
digging
disasters
dozen
earl
elliot
entrusted
fashion
fed
feedingstuffs
forthwith
gates
gettin
gosh
governed
gut
hated
humanity
implications
indirectly
intentions
lana
landed
loser
marie
marshall
matches
micro
nl
offense
overdose
oxide
partially
phosphate
pose
preferential
prodi
realised
realistic
relationships
reputation
reservations
respects
ribavirin
sandwich
serving
shields
songs
spite
staring
statutory
survey
swiss
tracking
unemployed
uruguay
useless
wallet
warehouse
welcomes
writer
##14
##ancy
##ars
##een
##eous
##ep
##for
##hy
##iness
##iro
##ith
##ives
##pi
##rad
##rant
##ras
##rel
##rey
##rina
##sation
##some
##tics
130
afterwards
aged
amanda
angels
assignment
associate
atmosphere
backing
beating
bills
briefly
broadcasting
bug
busted
charming
clothing
cole
communicated
compete
condemn
consignment
consist
copenhagen
counts
crop
curse
damned
delicious
differ
directorate
discontinued
dispatch
dosing
editor
embarrassing
emotional
endorsed
exceeds
exhaust
expertise
explains
footage
frightened
garbage
generate
grass
greens
holders
incidents
jeremy
jessica
judges
lasting
levy
listing
literally
loading
madame
mexican
notifications
patent
petroleum
pity
politically
preserved
rabbit
radical
refrigerator
removing
requesting
rolled
roman
scrutiny
seeks
sends
separated
shell
shoulders
somethin
specification
teachers
teams
temple
tone
tooth
trail
virgin
wholly
widely
winning
woven
yards
##active
##ager
##amine
##ats
##ect
##iles
##kers
##nal
##orate
##ple
##rb
##town
##tta
##tter
##uing
##unk
##vi
##zie
a4
answering
author
authorising
bath
beth
blast
britain
chips
clinic
competitors
complementary
con
confirmation
corn
darkness
delays
derivatives
downtown
drafting
dramatic
ease
employee
existed
experiment
gained
gathered
governmental
grain
handled
healthcare
helen
hop
hygiene
indicative
indonesia
initially
investigating
jesse
katie
km
knocked
lincoln
linda
mechanical
mere
navy
negotiation
newly
occasions
odds
privacy
pvc
raymond
reconstruction
recycling
registry
rising
searching
situated
sneak
speeches
suggesting
suggests
survived
tab
trailer
uncertainty
undoubtedly
unused
versus
wages
wheels
yelling
yugoslavia
##17
##82
##aneous
##ass
##bra
##cating
##era
##here
##hile
##ids
##lines
##lm
##rams
##sie
##uan
##uous
##uts
##vis
##а
1980
admitted
aluminium
approaches
authentic
baseball
battery
belief
captured
catching
circus
coin
coincidence
collateral
coma
comprising
concert
confidentiality
creates
cuba
declare
des
designate
diesel
directed
disorder
distinction
empire
engineering
entries
farmer
frankly
frequencies
friendship
geneva
grid
headings
heal
heating
hers
hip
info
injured
int
intensive
interference
irregularities
lastly
laundering
leonard
lewis
lifetime
lucas
miller
missions
moments
murderer
nightmare
novel
outset
ownership
payable
pharmacokinetics
pope
portfolio
procedural
proceeding
promoted
pulse
pump
purely
recognized
recover
rely
reporter
requiring
reserves
salad
salts
shocked
shots
stays
string
tim
toward
traveling
unanimously
unbelievable
whatsoever
wipe
worrying
##25
##act
##away
##cation
##ctive
##cus
##emia
##enic
##iate
##icing
##ison
##lant
##lary
##oma
##ride
##si
##so
##uss
##ware
##zy
220
abolition
adjusting
advocate
agrees
analyses
apologies
arrow
atomic
barcelona
beans
calcium
chasing
cleaned
coke
containers
cooper
crown
deeper
del
delayed
delete
depression
dexter
diameter
differently
dimensions
ecsc
epoetin
exceeded
exposures
fears
fella
fluid
forming
gravity
greg
guaranteeing
guessing
harold
heavens
herzegovina
historical
hoc
influenza
insisted
jungle
legend
methodology
millennium
moses
mystery
neighbouring
orange
outlined
passion
pays
pharma
preserve
prolonged
reinforce
robot
sail
sampled
separation
shelter
societies
spa
stamp
stephen
surrender
surrounding
swelling
swimming
tend
terribly
tolerance
unhappy
vials
width
winthrop
worldwide
##03
##47
##99
##cin
##dr
##ered
##erial
##hn
##iated
##ides
##ini
##ira
##ji
##lie
##mon
##oe
##pine
##rene
##rial
##set
##tos
##ution
##xy
##zzy
107
1784
abroad
absurd
apology
apple
au
avenue
b5
bauer
begun
betrayed
bless
boats
boots
bride
bush
cancel
capabilities
capsules
clinically
computers
configuration
consolidated
contributing
diplomatic
drafted
dreaming
echo
ecological
edit
edward
engagement
ethan
fairy
finnish
firing
forty
frequent
guideline
hits
identifying
importantly
inappropriate
individually
intensity
intermediate
intervals
irrespective
kidnapped
kissed
layer
margaret
marty
messing
mighty
nausea
nitrogen
oppose
organized
pesticides
pitch
potatoes
potentially
predominantly
presidential
pressing
prevented
printed
protocols
proven
publicly
purse
reproduction
retained
ro
roma
russians
sanofi
servant
simplified
slave
someplace
spin
suspects
tech
toe
transnational
treasure
tyler
uncomfortable
vomiting
walker
wayne
wednesday
whoo
wives
wool
##29
##ake
##day
##end
##fy
##hen
##iation
##ically
##ige
##igh
##iss
##itation
##lk
##off
##part
##ph
##plication
##rates
##rium
##tar
##tility
##tling
##tude
##win
101
125
350
354
700
activated
alley
anytime
auction
blowing
bravo
cable
cape
cease
clue
coherence
collaboration
congress
copper
correlation
dangers
dg
disagree
dual
elevator
eli
elizabeth
emperor
enzyme
exporter
foundations
fuels
functional
furniture
glory
grandmother
hail
heritage
historic
horn
hung
hunger
hurting
illness
inflammation
injected
josh
jumped
kong
laboratories
lou
merger
montenegro
moscow
mount
muhammad
nb
negotiated
norman
openness
organ
organs
originally
paediatric
peak
penis
phenomenon
pile
praise
proving
pse
revolution
roses
scream
seas
supreme
sweat
syria
temporarily
tension
theater
thorough
threaten
towns
transported
travelling
tricks
tubes
turnover
ugh
unlikely
urine
ward
warned
wars
wasting
whiskey
wounds
##05
##06
##40
##72
##73
##92
##aire
##city
##dies
##done
##ester
##ias
##law
##lers
##lets
##nding
##ona
##oring
##ort
##pin
##plied
##posing
##rim
##round
##row
##tives
##tra
##unce
##vable
##vage
##zi
##zone
180
analytical
anniversary
ash
auc
believing
blair
boost
boston
bottles
c5
calculating
carol
channels
chickens
chmp
cloud
combustion
concentrated
concessions
controlling
crossing
crude
deeds
departments
directions
dizziness
ensured
eusr
executed
explicitly
extraction
feature
guests
guts
heh
hong
ignored
impressed
inject
intense
interrupt
joking
liberty
malcolm
mankind
martha
mines
nate
nationally
paradise
password
performing
peripheral
pipe
posts
productivity
recipient
recognising
recombinant
ross
serial
shoe
singer
skip
slovak
soviet
specialised
spit
spreading
stones
studio
succeeded
suspend
talkin
todd
unrelated
vacuum
venture
visits
worship
wounded
##42
##ae
##ang
##bit
##chen
##ean
##force
##gation
##hold
##inal
##iring
##itor
##lated
##minated
##nus
##pel
##rator
##rnie
##tering
##tto
##tz
##ulators
##ury
##ws
102
110
138
1985
2b
abandon
admission
adopts
alongside
antibodies
arena
arrival
assumptions
behold
boom
booth
cameron
cared
ce
champion
cigarettes
ciprofloxacin
coastal
confident
contributed
coward
cultures
debating
demonstrates
donor
dublin
elevated
eliminated
employer
enabled
encountered
excl
exercised
experiences
fantasy
fewer
fibre
fingerprints
fixes
ford
foremost
fort
freaking
fucker
gathering
genuinely
guinea
harvest
hath
heck
homicide
hood
hypertension
incentive
injuries
inquiry
inventory
jersey
jews
journalists
knight
limitation
medication
mesh
micrograms
mistress
modifications
narrow
native
notion
ofthe
partnerships
pee
populations
preventive
privileges
profitable
protest
reasonably
remarkable
reminded
residents
respecting
retreat
righteous
rocks
ronnie
safely
sink
stem
sticks
subjected
tanks
taxi
variable
varieties
vary
vincent
vitro
weed
wholesale
widespread
xi
##are
##bag
##bled
##bles
##bow
##cb
##dam
##die
##dine
##dition
##ei
##ern
##ett
##fin
##gated
##graph
##ign
##ique
##mann
##mb
##nan
##olic
##plicate
##psy
##rations
##rosis
##sson
##tical
##udy
##ume
##van
##vention
##wa
105
136
2015
318
911
adaptation
advances
ambition
angela
attract
audrey
australia
backwards
blank
blessed
bold
calculations
charging
cheating
circuit
cock
confess
connections
contaminated
conventional
cooperative
cpa
cruel
deadlines
defending
delicate
delivering
den
designations
destined
destroying
detect
diamonds
dissemination
dragon
dropping
enlarged
environmentally
errors
expressing
fence
finest
flower
founded
francisco
frankie
gabriel
gambling
gene
gifts
guilt
hug
hydrogen
informal
intervene
islamic
keen
laughter
lend
lf
lifelong
meals
meanwhile
miami
necessity
neighbors
noah
obtaining
occupied
occurrence
oscar
overseas
owners
palace
paperwork
parker
participant
persistent
pharmacokinetic
piper
pleasant
productive
proliferation
publications
raises
ratified
reflects
regulate
resist
ruth
sacred
sandy
scientist
senate
serves
shark
shipment
shore
shouting
sickness
slide
sovereignty
stabilisation
stan
stink
subsidiary
sue
systemic
transportation
transposition
trends
tries
tunisia
vertical
von
wage
willingness
wilson
##45
##60
##65
##74
##chy
##din
##ena
##erate
##finite
##gina
##ik
##look
##more
##ord
##oxy
##penia
##rez
##tain
##tro
##turn
1975
abovementioned
actor
alcoholic
alternatives
angiotensin
balances
banned
behave
bin
brad
broader
caesar
capture
charlotte
chill
classic
clears
cmo
cns
competing
contacted
corporation
dale
debated
decline
delegations
demanding
detention
discriminatory
ensures
exclude
explanations
explanatory
explosives
exporters
farms
fatal
fats
flew
formation
germans
gray
halt
harvey
heavily
hollywood
hydroxide
ias
inch
ingredient
interoperability
limitations
loop
maastricht
mac
maid
marshal
masters
math
merck
metals
mineral
mirror
nephew
oath
objections
occasionally
overview
passes
philosophy
pipes
preferences
proportionality
psychological
reflection
renewed
reserved
sally
sealed
seizures
shy
slight
soup
steering
strikes
surplus
surveys
suspicious
systematic
teddy
testify
testimony
thereafter
thread
toy
traitor
tribunal
tune
turtle
vampire
veal
verily
vince
walt
yugoslav
##51
##61
##ators
##az
##bert
##bies
##born
##can
##card
##course
##eg
##enna
##gus
##iary
##lance
##lling
##mal
##minate
##nah
##okie
##ops
##ows
##rent
##riving
##ros
##rp
##rtal
##ulate
##urf
104
106
2a
450
468
academy
alike
altered
anger
bayer
beneath
bitches
breaks
broadcast
bureaucracy
burns
capacities
chapters
chart
ci
civilians
clearing
composed
congo
considerably
consignments
cooking
creature
credible
dealer
dedicated
dialog
discipline
divisions
earthquake
embarrassed
entrance
envelope
euros
examining
fridge
fry
grape
halfway
headquarters
helicopter
hypersensitivity
ideal
ignition
incoming
incredibly
inland
intel
jeez
knee
lending
leon
matthew
mistaken
modify
needles
neil
nickel
olaf
outermost
patterns
phoebe
physically
planted
potato
prayer
preparatory
prints
prophet
provider
pursuing
qualify
questionnaire
quinn
reiterate
relatives
repression
retired
reverend
robbed
sack
salmon
satisfying
sensors
sentenced
serena
shield
sire
sizes
socio
spectrum
stainless
stockholm
suggestion
supper
ta
tag
thompson
tonne
ultimate
underline
unions
validation
wagon
walks
warmly
yield
##04
##64
##aging
##ail
##all
##ani
##berry
##ceived
##cious
##don
##erson
##eus
##ffs
##gal
##gn
##heads
##hed
##how
##hs
##hz
##if
##ility
##iser
##litazone
##mission
##mma
##non
##og
##old
##ounce
##ribute
##rix
##rome
##rot
##sal
##sco
##sha
##sin
##tered
##ulating
##ule
##vel
##vic
111
113
117
218
accumulation
activate
advise
aiming
allison
anthony
appetite
appoint
assured
audiovisual
banana
blade
blown
cancelled
carlos
cartridge
catherine
charity
codecision
collapse
collecting
complain
corps
custom
deciding
dell
demographic
devoted
diana
disabilities
disappointment
disposed
dressing
eaggf
eleven
episode
expressly
formulation
ghosts
gum
highway
inflation
infrastructures
jokes
kitty
lactose
linguistic
louise
loyalty
manny
marco
margins
messed
messenger
meters
metres
mickey
misery
neighbor
ng
obsessed
oedema
palmer
pathetic
permits
pierce
preferred
pressed
profession
pulp
purchases
ranging
repeatedly
researchers
restrict
ringing
russell
safeguards
scenario
sharon
shelf
slaughtered
soda
solar
souls
sovereign
sp
suggestions
swift
tale
tap
thailand
throne
torment
translate
tribute
troy
unity
valentine
viability
warnings
wisdom
##15
##21
##ama
##bby
##cake
##certain
##chi
##cker
##dro
##ef
##fall
##ibly
##ico
##iki
##ister
##logist
##lute
##nies
##ographic
##oration
##pped
##rah
##reet
##rf
##rill
##rmon
##state
##sty
##ump
##una
##vet
##vian
##vies
##wan
1260
140
160
accomplished
administrations
alloy
amino
analysed
aquatic
autopsy
aventis
backed
belly
blah
blocking
bombs
bowl
c4
chat
cheat
coefficient
comin
configure
consistently
contrast
cowboy
creatures
crush
decides
deficiency
displayed
distress
divide
documentary
doll
efavirenz
emphasised
ethyl
eurosystem
evident
excise
exploit
filthy
forbidden
gimme
golf
healing
hitler
homeless
imagined
impaired
induced
insofar
inspired
intelligent
invested
jacob
jet
justin
karen
lacking
linear
logical
managers
mason
median
meredith
metabolites
metformin
mixing
monotherapy
mortality
motel
neutral
occupation
offences
operates
optional
org
oversight
pat
phrase
pollutants
pound
precautionary
privilege
proportionate
punished
purity
rational
receives
receptor
replacing
revenues
rocket
rocky
rod
sadly
sammy
scrap
sebastian
shareholders
silk
sounded
specifying
sphere
sterile
stream
sums
sweep
swing
switched
tattoo
terrific
tess
ties
timely
touching
tribe
underneath
unlawful
urgently
vienna
visitors
watson
weighing
wished
wishing
##af
##ala
##aring
##ban
##berries
##del
##dicated
##dium
##dor
##due
##etion
##fect
##gage
##gers
##ifiable
##ika
##jah
##just
##lam
##lands
##lice
##lier
##lved
##making
##nna
##onal
##onate
##ored
##ots
##oxin
##pard
##pic
##pm
##pol
##ption
##rds
##rich
##rol
##ru
##ser
##shing
##sts
##tate
##tie
##uch
##uid
##uit
##we
114
1968
210
900
absent
accidental
achievements
algeria
ally
analogue
announcement
arrange
arranged
asian
attempted
awaiting
bare
bases
bend
benjamin
boiling
buttons
cam
carriage
ceremony
chicks
chilled
cited
complying
conducting
contamination
cooked
coordinating
corresponds
corridor
cox
cultivation
daphne
deaf
dealers
dental
dessert
destinations
dial
diarrhoea
dilution
discretion
dominant
eagle
email
emu
enhancing
episodes
establishes
expand
experiencing
expire
ferry
finances
finishing
flies
floating
foolish
forecast
foreseen
fur
generated
generic
grouping
habit
hatch
haul
holmes
humor
independently
initiating
intolerance
invoice
jewish
jonas
killers
lean
lungs
manifest
measurements
miserable
mitch
mitchell
monsters
murphy
nace
nina
obstacle
olivia
organise
palestinians
parade
peer
perspectives
phare
plague
pricing
prohibit
prospect
pumps
residual
retention
rivers
ruled
scratch
screening
seattle
sectoral
sequence
sessions
sheldon
shortcomings
si
slaves
specialist
stakeholders
stating
straw
studying
suspicion
thanking
theatre
tons
transatlantic
traps
trauma
unexpected
vacant
volunteers
wins
witnessed
wondered
zoo
##33
##aked
##aries
##bes
##bp
##ching
##cile
##door
##ency
##fies
##hine
##icable
##lings
##lled
##mad
##power
##quiries
##rence
##rid
##rio
##rne
##struct
##uating
##ugh
##unted
##urs
##vier
##with
##yon
109
178
1978
230
academic
accessories
afghan
ages
arriving
arts
assuming
avian
awkward
barney
baron
begging
beneficial
biodiversity
boot
cabinet
calculate
campaigns
caring
celebrating
chaos
compensatory
competences
consolidation
converted
craft
debbie
debts
deer
deserved
diagnostic
dialysis
disadvantage
documented
domain
dragged
duke
eighth
emerging
empowered
era
erm
eternal
explicit
fails
fathers
films
fits
florida
fog
forests
fox
gradual
hypotension
idiots
im
impacts
incorporating
infants
inhabitants
ink
inn
isolation
janet
jill
karl
kurt
lighting
liquidity
liz
locally
magnesium
mall
marcus
mice
mikey
mining
mohammed
mothers
ncb
necklace
olympic
opt
organism
pablo
parked
patents
permanently
planes
policeman
porter
posed
prom
quarantine
racist
ralph
rated
reads
rebecca
reimbursement
reservation
rolls
sg
shed
skimmed
soap
sober
squad
stresses
stringent
structured
subheading
sulphur
surprises
taiwan
taxable
taxpayers
termination
textiles
thickness
tiger
tits
trucks
trunk
viraferonpeg
virtually
wee
wizard
wyatt
yup
zimbabwe
##0000
##32
##37
##43
##63
##77
##80
##alisation
##bia
##bis
##building
##cases
##cl
##coming
##ear
##eration
##iable
##ilation
##ille
##laus
##life
##mit
##nds
##nen
##ome
##orm
##piece
##pies
##print
##pted
##ptic
##rer
##rieve
##rom
##rows
##rts
##run
##rus
##sible
##sten
##stle
##system
##tist
##ually
##uate
##vich
##vine
##vised
##west
##ο
123
999
accountability
accuracy
admiral
aggressive
ali
anticipated
appreciation
ari
assign
attach
auto
bacon
baker
banknotes
batteries
benefited
bishop
bonnie
brick
brig
bristol
brooklyn
bugs
bureaucratic
carries
ceilings
choosing
cmax
commonly
confession
confined
contested
continuity
corporal
cough
cracked
crane
crashed
dennis
dinozzo
disproportionate
disturb
disturbed
divorced
drowned
endeavour
eradication
erik
esf
explosion
facilitating
fatigue
fetch
fi
fiance
fights
fitting
focusing
fortunately
francis
gallery
grabbed
hallway
happier
holes
hormone
horror
hostages
impress
ing
inner
interventions
jewelry
journalist
judgement
judgments
labels
lad
ladder
lease
lecture
liberties
lifted
likelihood
lobby
lois
lung
manuel
mature
megan
merlin
moron
museum
ncbs
nm
nominal
observers
occurring
owes
paige
palm
patrol
physician
pierre
porn
pp
premises
preservation
prick
prosecution
punish
ra
reconstitution
respiratory
ron
screwing
selective
selfish
semen
sensitivity
seth
sonny
spider
stab
stance
strain
strongest
submitting
superior
symbols
tara
tenderer
th
thanksgiving
thresholds
tin
toes
transmit
tremendous
twin
twins
underground
utmost
virginia
whip
wings
wore
zach
##35
##44
##48
##49
##ann
##ards
##body
##borne
##cc
##cil
##cky
##cp
##cules
##current
##dad
##dale
##ected
##genic
##gram
##gregation
##idal
##imate
##ito
##itz
##lee
##lles
##low
##mates
##mus
##ogenic
##ost
##press
##quisite
##race
##rat
##rice
##rick
##rite
##rrow
##rty
##rue
##sman
##ualities
##uary
##ube
##usion
##vascular
##vastatin
##vising
##wed
##yed
##ysis
1107
118
1580
1782
abu
adapting
ag
ageing
ahh
aliens
andre
approving
attacking
attempting
autonomy
bait
beloved
bible
bounty
buses
casino
centuries
chains
cholesterol
closest
clubs
collins
colors
connor
constructed
conviction
convincing
coordinates
coordinator
creative
cried
crises
currencies
dammit
deadly
deposits
directors
discontinuation
dope
dreamed
drives
drone
effected
elaine
eligibility
emotions
engineer
excuses
fatty
filed
flip
flood
fred
gentle
guitar
heroes
highness
hills
homeland
honeymoon
hooked
hybrid
importing
infringements
insult
insuman
interfere
jacques
joshua
kenny
kicking
kissing
labelled
lap
leak
lesbian
lets
limiting
lit
litres
locations
locker
logan
logic
lookin
losers
lousy
merciful
ministerial
modernisation
module
moore
motions
mrls
muslim
mustn
nest
offal
onset
ops
optimistic
particles
patience
periodic
pm
po
pole
preclinical
pretending
privatisation
probability
promising
purchasing
raped
reaches
readily
reconciliation
regrettable
replies
resistant
resume
rigid
romanian
seriousness
shining
sins
slut
sorts
stargate
starving
stores
sudan
surgical
swine
syrup
teal
technique
tens
thick
thirds
thoroughly
torn
tunnels
turk
unchanged
ups
variation
visas
warren
wendy
whispering
worries
ziva
##22
##41
##46
##52
##66
##98
##backs
##bal
##ceive
##cr
##dence
##dicate
##eer
##enia
##ever
##feit
##fuse
##get
##ggie
##gles
##hand
##hibit
##idine
##ifier
##ington
##ises
##itary
##lates
##link
##lton
##mas
##nge
##not
##ode
##olved
##oms
##onazole
##ouncing
##port
##pressive
##pylene
##real
##ret
##ried
##rst
##signed
##try
##voke
##wk
##xia
##σ
1970
2454
270
abolished
accent
allen
amlodipine
ammonium
announce
annoying
anxious
appointing
arises
arthritis
assumption
audits
axis
bam
barn
bees
bench
benefiting
betty
blanket
boo
breaches
brody
buyer
cal
caroline
chop
cocaine
compartment
confirms
consciousness
consolidate
copyright
creep
creepy
crushed
ctu
damon
daylight
decree
deduction
deployment
dime
discovery
dive
douglas
doyle
draws
eg
electoral
erythropoietin
evolution
exempt
exempted
expired
explosive
fascinating
fighter
filling
flint
float
flu
footing
footnote
fragile
gains
gaza
gee
generator
gmos
goa
grades
grapes
gratitude
grief
grunts
gus
hammer
harmonization
harsh
holidays
holly
horny
hu
incorrect
indispensable
informing
intake
integral
iranian
irresponsible
jerusalem
julian
jumping
kings
kw
legacy
legitimacy
libya
lifting
lilly
lowering
marrow
minimise
missile
misunderstanding
mole
motherfuckers
myers
naive
nigger
offence
organisational
orientation
outfit
pace
petitions
phoenix
pillars
praying
professionals
propagating
pulmonary
punk
purchased
purple
qualitative
quest
rank
remark
reproductive
restored
ricky
roles
rounds
salary
salvation
shine
sme
snake
solana
speeding
spots
stanley
stepped
sticking
stimulate
substantive
sucrose
sulphate
swallow
terrified
theft
tire
traditions
trains
travis
unanimity
unconscious
undercover
undergoing
upside
usage
valuation
viral
virtual
wagons
warming
wax
weigh
wicked
wrap
zinc
##24
##70
##81
##amble
##amide
##ara
##ational
##att
##band
##cca
##eas
##ere
##eur
##from
##ganda
##hang
##ila
##illa
##ima
##ink
##ior
##itration
##kistan
##lating
##liness
##lls
##locks
##lor
##mar
##ml
##oil
##oked
##ola
##olet
##oli
##olo
##olves
##oric
##osed
##pone
##proof
##reak
##rett
##ributors
##sions
##ski
##ssen
##sters
##tivity
##tric
##tti
##uc
##urn
##urt
##verse
##voy
##vudine
##ycin
##°c
##α
##о
126
142
1833
185
1898
1981
1983
20th
337
5000
ab
abused
accelerated
accepting
accepts
acetate
album
altogether
analyse
anxiety
arbitrary
ashes
asses
attended
autumn
bathing
beside
boundaries
brutal
bulk
canary
capsule
celebration
characterised
clown
compensate
complications
compromised
concepts
concession
confederation
confirming
congratulating
constraints
contest
contradiction
cunt
cyp3a4
decreasing
demonstrating
desirable
diamond
diane
disastrous
discover
displays
dispose
disputes
distort
drain
eco
efficiently
emotion
entrepreneurship
excessively
fabulous
fastest
favoured
feds
filgrastim
fines
forgiveness
formalities
freddy
gaps
gotcha
graham
grows
haley
hardware
hereafter
heroin
hon
icao
inspectors
invisible
iraqi
isabel
kit
lakes
laptop
laser
laundry
lemon
lesser
lester
liaison
liam
lightning
lithium
madness
magnetic
manhattan
marvin
melissa
mergers
miranda
moldova
monopoly
myth
natalie
neighbourhood
nets
newspapers
notices
novo
nut
observer
ohh
ol
oriented
outline
packs
pens
plastics
presume
prostitution
qualification
rebel
refrain
relevance
resort
rio
sacrificed
shaking
shaw
simultaneously
sincere
sincerely
skill
slap
soccer
sophisticated
starch
stimulating
strap
substitution
surprising
switching
sympathy
tangible
tapes
tense
thyroid
tomatoes
topical
tumour
tumours
underwear
universities
urinary
vampires
veterinarian
voltage
wade
wallace
warrior
waves
willie
wiped
workplace
yell
##57
##ache
##air
##ame
##ander
##ash
##cakes
##cha
##chester
##cm
##duced
##ead
##etry
##fication
##front
##grading
##gression
##hop
##inct
##ingly
##inity
##isy
##kan
##lator
##lerable
##lish
##list
##ller
##lone
##lves
##mie
##mist
##mm
##nails
##natural
##ometers
##opathy
##oul
##ox
##pelled
##pping
##ppy
##pressed
##pton
##rand
##rass
##rging
##ribe
##rough
##rove
##rth
##section
##sses
##sta
##stinct
##ston
##stone
##taining
##term
##type
##uated
##uded
##ugs
##unction
##urance
##uri
##uted
##utical
##vern
##version
##weight
##zine
108
119
121
124
131
145
192
1977
1979
1986
371
543
abilities
acids
adventure
ambitions
anderson
angie
ann
annually
approached
arguing
ashley
asthma
attending
attracted
await
b4
balancing
beet
believers
biofuels
bleed
calibration
campus
caribbean
cents
characters
chef
clauses
clearer
colombia
colony
committing
comprise
constituents
controversial
cookies
corpse
cows
crocheted
daisy
dancer
databases
daughters
dem
derivative
diagnosis
discount
distinguish
donors
ducks
duncan
eats
elephant
embassy
embryos
enbrel
energies
entail
exceptionally
exercising
experiments
feasible
filament
financially
flags
footwear
fraction
frontier
garlic
gastrointestinal
gauge
generalised
gina
goodnight
gps
groans
guardian
gym
halloween
ham
handy
hans
hardest
heather
hormones
humble
ict
impetus
indigenous
induction
inhibitor
introductory
investigated
issuer
jazz
jo
judiciary
kiddo
knitted
knives
les
lip
lydia
madeira
matching
memorandum
merit
metabolised
modest
moisture
monkeys
mortgage
mud
mummy
na
neighbour
nicely
nordic
optical
owns
pam
perimeter
pesticide
philip
photograph
photographs
pill
pin
pipeline
plug
pockets
pops
premature
programs
proves
provisionally
publicity
publishing
radius
ratings
recalled
recognises
reconsider
recruitment
remainder
remedy
rental
repeal
responding
resumed
risky
romance
rotation
rye
scandal
securing
shareholder
silicon
simplify
smiling
smoked
socialists
sophie
sore
stroke
subcutaneously
substitute
successive
suited
supplying
survivors
sv
talented
taric
tastes
toll
touches
tourist
traces
transplant
unlimited
updating
utilisation
variables
vascular
vengeance
warp
washed
weaknesses
whichever
winding
wreck
yl
zoe
##27
##56
##69
##91
##ace
##acher
##any
##ared
##artan
##asus
##ave
##cu
##dging
##dices
##dp
##eon
##erra
##face
##fective
##form
##fying
##gin
##gun
##hill
##hl
##iac
##idity
##iled
##imal
##ional
##ipulate
##ivation
##izer
##lag
##lare
##lash
##laws
##lve
##lyn
##mentation
##mination
##ography
##onic
##oped
##oris
##paid
##phenyl
##phic
##pot
##pus
##quet
##razole
##reen
##rion
##rison
##rlene
##rook
##rophy
##rrel
##rton
##scribing
##sia
##ska
##strate
##tant
##tc
##tent
##thy
##tia
##tile
##tting
##uge
##unded
##urious
##vise
##vist
##worth
##ye
##yi
1255
149
152
2913
360
3a
accreditation
ace
administrator
aeroplanes
ahem
alexander
alibi
alt
alu
ambient
antiretroviral
appliances
appreciated
arrogant
barbara
beaten
benny
bernard
betray
biocidal
bitter
blake
blocked
blond
brush
ca
cabbage
campbell
carpet
childhood
christine
christopher
circles
clarification
clarified
clouds
complement
concluding
conditioning
conferences
conscious
conservative
convey
cor
correspond
cosmetic
costume
counterparty
cruise
damaging
dc
decade
deployed
diary
dining
diplomas
dismissed
distant
distortion
disturbances
dock
drama
dresses
drops
dug
dwell
ecofin
edf
elena
enables
entrepreneurs
equidae
erdf
ethics
expects
eyed
fashioned
fiancee
fischler
flame
fruits
galileo
genocide
gesture
gloria
gue
gulf
habits
happily
harmonise
incidentally
incorporation
instant
instruction
intent
interactions
interior
interpreted
interrupted
introna
invasion
jha
jonathan
kansas
ken
kent
knocking
lamb
lame
li
liberals
likewise
linking
locking
loyal
macroeconomic
magical
magnificent
malaysia
med
mick
mills
minimal
minors
modes
multinational
ned
nelson
nerves
ngl
novartis
observatory
overnight
paintings
parameter
particle
passage
passports
perry
pharmacological
pirate
pledge
plot
poisoned
poorest
popped
pork
posted
prevents
principally
problematic
profiles
prompt
prosecutor
pumpkin
qualifying
rabbits
ranges
ratify
recipients
refugee
regimen
ribs
rue
rumors
satan
secrecy
senses
shadows
shooter
shout
shove
sitagliptin
skull
somnolence
splendid
stark
statistically
strangers
tacis
tactical
tariffs
tent
tortured
traceability
tractor
trailers
transhipment
trips
unstable
validated
valve
vic
visibility
vodka
weights
wells
worthless
xenophobia
xv
##39
##ader
##aemia
##ali
##amo
##bank
##bridge
##bu
##bus
##cat
##ced
##cie
##cked
##cking
##conazole
##cript
##cting
##ddle
##df
##dling
##eat
##edo
##eletal
##eria
##eva
##fill
##financing
##fo
##generation
##gilance
##got
##guard
##hai
##holding
##hydrate
##ike
##inations
##inent
##itch
##iter
##kis
##lad
##lander
##lara
##layer
##location
##log
##lycaemic
##maker
##market
##meat
##nell
##ologist
##omy
##onial
##ores
##overs
##owed
##phone
##pulsion
##raine
##rank
##raph
##rest
##rew
##ribed
##rical
##rik
##rries
##rson
##sp
##tically
##uality
##ucking
##uffer
##uffs
##uh
##uis
##ulin
##uria
##uth
##varian
##vert
##wards
##wise
##yes
##ype
##zes
##zon
116
128
135
169
308
abdominal
addiction
administer
adversely
aeroplane
aforementioned
airspace
apples
aqueous
artistic
audio
audition
badge
barley
bass
blonde
blows
bothering
bum
burger
caleb
canadian
cellulose
chambers
characteristic
charm
coffin
comm
completing
compliment
compromises
conditional
conform
constituted
cord
corrective
counsel
countless
coup
creek
cycles
dana
dash
defendant
deficiencies
devastated
diego
differentiated
disarmament
distortions
dozens
drank
egf
emerged
emergence
emphasises
essence
exam
exercises
felix
fentanyl
fierce
fighters
filing
flynn
focuses
forgetting
fortunate
fried
fulfilling
fulfilment
glorious
goodwill
grip
growers
hack
heartbeat
hector
helmet
hides
hiring
honesty
hospitals
imagination
imo
inches
inclusive
indians
insists
insufficiency
integrate
interval
investing
ira
ivan
junk
khan
lads
lena
magnus
martinez
maturity
mentioning
meter
mia
mini
motivated
nearest
nowadays
nutritional
onwards
ovine
particulate
patten
pepper
persuade
pervert
pharmacodynamic
poem
powered
probe
questioned
questioning
racing
reckon
reconstituted
reinforced
reiterated
reliability
repay
repayment
repeating
responses
retire
rev
reveals
richie
rifle
ritual
rosie
samuel
saudi
scattered
scotch
seeker
seizure
sells
shakespeare
sharks
sherman
shitty
singapore
slit
snap
socially
spaces
spatial
squibb
static
steam
stipulates
stranded
stretch
stricter
tackling
tennis
theo
thirsty
tick
tolerate
tracy
traders
tsi
tyre
unclear
underestimate
understandable
unloading
urged
vaccinated
varied
vault
vest
victoria
watches
welcoming
whistle
widow
##88
##acle
##ada
##alyst
##ari
##arians
##ata
##ath
##bin
##bine
##bot
##cel
##cision
##cock
##com
##cur
##dos
##ergies
##erman
##ersible
##eu
##fly
##fold
##gent
##ience
##imulation
##inating
##inous
##lessness
##like
##lities
##lour
##mobile
##ngo
##nin
##np
##oes
##olt
##olysis
##ont
##oons
##osing
##oxide
##ppropriation
##rab
##rea
##rious
##rooms
##rque
##rum
##spiration
##sse
##stic
##stract
##sumption
##tail
##tas
##thm
##ths
##trom
##uction
##uish
##uke
##uman
##uncture
##under
##urge
##utes
##vd
##victed
##vous
##vre
##xa
##xate
##ymptomatic
##zide
##ия
127
1408
157
168
1967
21st
2200
253
2°c
548
750
853
8°c
accidentally
acquire
airline
airplane
allergy
alter
aromatic
assholes
atlantis
attained
backs
backyard
barrel
basketball
bean
beats
bits
bombing
braking
burnt
calvin
cane
capability
cart
cd
chad
cheer
circulating
claiming
classical
cocoa
columns
communists
comparative
comprises
comrade
constituency
constituent
consumed
contraindications
cooling
corrupt
creditors
cs
curtis
deed
demanded
democracies
deprived
derive
desires
diner
disturbing
download
drill
dull
dysfunction
earmarked
eliminating
ellen
embrace
entertainment
ep
escort
ethylene
eurojust
execute
explaining
fabric
feast
firearms
fond
fools
forecasts
frankfurt
fu
fusion
gasoline
gig
ginger
gloves
guiding
gwen
harris
helena
herman
hint
hooker
houston
hugh
ian
ices
identifies
inevitable
inputs
instinct
instructed
integrating
interface
invitations
jamal
jax
jennifer
jensen
kennedy
kenya
kidnapping
lance
lands
landscape
las
lazy
leonardo
licensing
lid
lining
liquor
litre
lodge
loses
magazines
magician
maps
marker
mars
mates
metabolite
michelle
modulation
monica
municipal
musical
mutandis
mutatis
nigga
obey
offset
op
opponent
outbreak
oven
overwhelming
parole
patty
peach
peaches
pearl
periodically
persecution
physics
pneumonia
pointing
premiums
preserving
proceeds
progressive
proportional
proteins
psychiatrist
puzzle
rack
razor
readings
recommends
refined
regrets
rehabilitation
relieved
resale
resolving
responded
restoring
restricting
riley
rita
robinson
roommate
rounded
rt
rubbish
rum
sacrifices
safeguarding
salaries
sandwiches
sarge
sauce
seekers
seized
selecting
severely
sexually
shepherd
shortage
shorter
sk
slim
smuggling
solo
solving
spiritual
spotted
stubborn
subsidiaries
supportive
swore
tendency
theoretical
til
tips
ton
transformation
tub
tuck
uld
unanimous
underlined
undermine
understands
uranium
vague
vicious
wears
winds
withstand
worm
##59
##abouts
##ado
##aid
##alia
##arin
##arm
##astic
##ax
##bable
##bc
##bic
##ceivable
##cg
##ciation
##craft
##date
##dog
##dopa
##ecs
##edly
##elled
##enicity
##erick
##erland
##eroids
##ev
##fort
##gies
##gler
##hers
##ices
##icial
##igo
##keeping
##kle
##len
##lina
##lise
##long
##lora
##loration
##marks
##mat
##met
##metric
##mg
##nant
##nating
##nel
##neous
##nik
##ntal
##ogenicity
##oh
##olas
##ols
##oner
##oni
##ora
##orf
##otics
##ovan
##ove
##pack
##pile
##place
##pple
##rability
##ract
##rait
##rance
##renaline
##rg
##rilled
##rit
##rov
##roy
##rta
##rtan
##rting
##sce
##secuted
##sic
##stitute
##stream
##tched
##tence
##tery
##tment
##trix
##tten
##uct
##uity
##ums
##unity
##unning
##uo
##urst
##usive
##utant
##utation
##wned
##works
##world
##worthiness
##worthy
##ydrate
10000
1049
129
156
158
166
216
222
235
280
386
510
abe
abigail
abortion
activists
addict
alias
amelia
anomaly
anonymous
ape
apologise
arctic
arrives
awfully
babylon
banning
beard
belts
biodiesel
bloom
boarding
bonds
bonus
booze
borrowing
brace
brass
bred
bump
cambodia
canal
chechnya
circuits
cliff
clues
clyde
combinations
comic
consecutive
construed
contagious
convenience
cope
corners
corrections
costa
councils
crawling
credits
cursed
daniels
deficits
democratisation
demons
depressed
describes
diabetic
diluted
directory
disagreement
displaced
dreadful
drift
drum
dylan
elaborate
electronically
ellie
emerge
entitlement
enzymes
epar
erica
est
everyday
excreted
experimental
failures
faithful
feared
fellows
females
finn
fist
fleets
forbid
formally
fortress
framed
franklin
freaked
freezer
frog
fulfils
garcia
goose
guided
habitats
harmonized
hatred
hilarious
htm
ida
illegally
illicit
imbalances
implies
incapable
incomprehensible
inhibition
insolvency
install
internationally
interpret
investigator
jam
jew
joints
karma
korean
landlord
leap
learnt
leverage
lighters
locks
luxury
madagascar
magnitude
mainstreaming
makeup
males
marines
matched
mep
mercury
miguel
mill
missiles
mo
modules
momma
municipalities
muscles
myanmar
nails
natura
nazi
nearby
nightmares
nsa
obsession
painted
palestine
paperboard
parkinson
pause
peculiar
pensioners
petrol
pornography
pos
profound
prospectus
proximity
puppy
quietly
railways
redundant
reed
regimes
relieve
remit
rub
sanchez
scar
scum
searched
segment
sensor
sewing
shaft
sid
skinny
slipped
smarter
snakes
sniper
socks
spark
spinning
squeeze
standardisation
supposedly
sustain
sweating
systematically
tabling
tacrolimus
temperatures
temptation
terminated
therapist
thieves
thine
tina
toss
traveled
unilateral
unjust
upgrade
usd
vaccines
valued
vanessa
varies
verheugen
vitamin
volunteer
voters
vs
willy
winston
wit
worn
wraith
yoga
zealand
zombie
##28
##34
##54
##87
##94
##ached
##ahan
##athy
##atory
##aux
##azon
##bation
##bbing
##bler
##burgh
##butyl
##cast
##cept
##cf
##check
##cho
##cinct
##cket
##coccus
##ctation
##cure
##cute
##dating
##drant
##duce
##edes
##elly
##eology
##father
##fi
##fix
##fl
##fs
##gia
##gna
##group
##guous
##held
##hot
##icating
##idation
##iers
##ife
##ild
##ilisers
##inator
##ires
##itol
##iva
##ivated
##iz
##laming
##lap
##leen
##lessly
##lian
##lion
##lli
##llow
##loaded
##love
##lp
##map
##marking
##mash
##meal
##mund
##ndy
##nnie
##nning
##oids
##olf
##omed
##oning
##ope
##orable
##oro
##ously
##outs
##pie
##ply
##pulsive
##rators
##reated
##ributes
##rilla
##rily
##ritable
##rity
##rogating
##rophic
##rsed
##sey
##shot
##site
##sky
##tay
##tism
##tum
##ucker
##udging
##ughter
##uitable
##uiz
##uk
##ult
##ulu
##unny
##urel
##ursing
##used
##uties
##view
##vs
##wat
##wisted
##wski
##xic
##yle
##и
115
1249
139
141
147
1976
1984
1a
211
212
343
370
5a
accommodate
accord
accountant
adds
admire
albeit
allocations
altitude
amusing
anticipate
architecture
arose
arrests
automated
bailey
balloon
bands
basket
beds
beep
bicycle
bis
blackmail
blisters
bout
bowling
braille
branches
breasts
buddies
cancellation
caprine
captive
casualties
cautious
ceases
ceramic
cheated
cheek
chester
chffffff
clan
clarke
clicking
cody
commend
commodity
complaining
complexity
compression
confusing
congestion
convert
corporations
correspondence
courtesy
cousins
criticise
defines
deliberate
deliberations
demonstrations
designs
deterioration
dex
disappearance
dishes
dispatched
disturbance
diverse
dk
downstream
dragging
drawer
drown
durum
encounter
endless
enters
examinations
excellence
exchanged
expanded
explore
expose
extracts
favourite
festival
finalised
floors
freed
ge
gil
goddess
gossip
granny
haircut
harassment
hears
heated
hemp
herd
hesitate
hid
honorable
hose
hush
hyperglycaemia
icelandic
imf
imperative
imply
imprisoned
impulse
impurities
induce
infant
insecurity
inspected
instances
instincts
isabelle
jade
jedi
jeffrey
kindness
laden
lawn
lime
locate
macro
maker
malignant
marrying
meaningful
meaningless
metro
minimis
mitigation
mob
motorcycle
mounted
mulder
mysterious
narrator
ne
niece
nigeria
offended
offensive
omar
par
peanut
petty
phases
phillip
photographer
plea
polymers
portion
postponed
poultrymeat
pour
predicted
preference
prescribe
prevail
produces
prosperous
rage
raid
randall
ranks
ransom
reasoning
rebels
recession
reciprocal
reese
refuses
refusing
regulating
reminder
rendered
repercussions
resign
rex
roaming
roberts
rods
rosa
roughly
sailor
santer
saul
sayin
scores
scout
se
senor
shallow
shane
shave
shifts
shrink
sixty
ski
skies
skilled
skirt
slack
slavery
smack
sofia
soluble
spencer
spilled
spoil
spouse
stack
stare
steak
sterling
strings
strips
strive
subsidised
surgeon
sydney
template
terrestrial
thermal
thunder
tipped
titanium
topics
tops
towel
traced
tractors
traded
triggered
triple
turner
twentieth
typically
ucits
ukrainian
undermined
vanished
vein
velocity
veronica
violated
warriors
wheelchair
whisky
wrapped
wrist
##38
##55
##68
##aa
##aesthesia
##ains
##alo
##alysing
##alytic
##ament
##arded
##asa
##balance
##bd
##bers
##bon
##borg
##cedent
##ceptive
##cist
##cite
##ckett
##cle
##cribing
##ctory
##cut
##cv
##dan
##dated
##dent
##dl
##droxy
##ection
##eding
##eith
##eller
##ensive
##eral
##erine
##eter
##ffy
##finitely
##firmed
##gel
##ggling
##gled
##gma
##grant
##hamp
##hara
##herent
##hes
##hesive
##hg
##hire
##hone
##iah
##icant
##ida
##idable
##idemic
##ijan
##ilated
##ilising
##iology
##ione
##itrated
##itter
##ival
##ivan
##lace
##lady
##lamps
##lax
##lby
##leading
##lip
##llas
##lots
##lucose
##mable
##mative
##mble
##mers
##mical
##mir
##mitted
##nch
##nders
##nist
##nn
##nted
##ocate
##ocrat
##ogical
##oks
##olish
##ometric
##ories
##oth
##ouse
##pen
##pet
##pit
##ported
##prehend
##pressing
##quent
##ques
##quin
##quiring
##rade
##rading
##rage
##rath
##rawl
##rayed
##rbor
##rease
##rection
##regulation
##rehend
##rella
##rench
##ricular
##rming
##rupt
##ryl
##san
##scription
##sessed
##sexual
##shes
##sley
##space
##sr
##star
##style
##systems
##tage
##tated
##thyl
##tles
##tres
##uation
##ucky
##ues
##uin
##ulge
##ull
##ulus
##umber
##unition
##uns
##uppression
##ups
##ustrated
##uz
##vailability
##vance
##vid
##wanted
##witz
##ydrochloride
##ylic
##yrus
##zan
##zar
##zle
001
176
248
333
358
425
abide
absorbed
acceleration
accommodation
accompany
accountable
accounted
adjacent
administering
agreeing
alec
allies
amounted
anchor
ancillary
angles
angola
anhydrous
ankle
antonio
apollo
artists
aung
authors
ay
bachelor
bail
bankruptcy
batman
baxter
bea
beacon
bells
blessing
blessings
brok
bruno
bucket
cafe
candles
catalogue
championship
chancellor
cheaper
chemistry
chopper
cif
citrus
col
competitor
continuously
counselor
counterfeiting
couples
cries
cult
cumulative
curb
deceased
deducted
deepest
delightful
delta
desktop
detrimental
devon
disciplinary
disregard
distillation
distinguished
dome
dominated
dot
dsm
dudes
duloxetine
dummy
earliest
economics
egyptian
elvis
emphasize
employ
endangered
engaging
enthusiasm
entitlements
equals
equation
esa
eternity
eugene
exchanging
excitement
explode
farmed
finch
florence
followers
forcing
foreman
founding
fourteen
gaining
gal
gently
glaxosmithkline
graduation
hazards
hedge
highlights
hoo
hydrochloric
illusion
imminent
incomplete
inflammatory
ini
innocence
intact
intermediary
invoked
isaac
itching
jan
kara
keeper
kilograms
kramer
kung
kurdish
labor
lawrence
lebanon
lens
lethal
liechtenstein
lighter
lloyd
marcel
mckay
meda
meds
mentally
mi
michel
migrants
mirrors
mobilisation
mobilise
momentum
monroe
multiplied
nap
naughty
needing
ninth
obligatory
observing
occasional
operative
organising
orphan
ouch
outcomes
owen
owing
participated
pas
pegintron
pi
pistol
piston
planting
poisoning
polite
polyethylene
pony
positively
preceded
predict
presumed
processors
proposition
psycho
quarterly
queens
quoted
ram
ranch
rap
reasoned
recruit
regain
rehab
reinforcing
reminding
reunion
reviews
rides
rn
rodney
rot
rusty
scientifically
seafarers
seals
seated
seminar
shalt
sidney
simulation
sirene
slightest
socrates
solomon
spying
stacy
starfleet
stash
stiles
sunny
sunset
sunshine
supervisor
swamp
swap
syrian
syringes
tampere
tanner
temper
tendering
thai
theirs
threatens
thumb
tide
tracked
transferring
transformed
translated
transporting
transpose
tropical
troubles
truman
tryin
tyres
ultra
undergone
undermining
underwater
verdict
vinyl
viraferon
visions
voluntarily
wakes
waking
wales
wh
μm
##!
##"
###
##$
##%
##&
##'
##(
##)
##*
##+
##,
##-
##.
##/
##:
##;
##<
##=
##>
##?
##@
##[
##\
##]
##^
##_
##`
##{
##}
##~
##¡
##¢
##£
##¤
##¥
##¦
##§
##©
##«
##®
##±
##¶
##·
##»
##¿
##×
##æ
##ð
##÷
##ø
##þ
##đ
##ħ
##ł
##œ
##ʼ
##β
##γ
##δ
##ε
##ζ
##η
##θ
##ι
##κ
##λ
##μ
##ν
##ξ
##π
##ρ
##τ
##υ
##φ
##χ
##ω
##б
##в
##г
##д
##е
##ж
##з
##к
##л
##м
##н
##п
##р
##с
##т
##у
##ф
##х
##ц
##ч
##ш
##щ
##ъ
##ы
##ь
##э
##ю
##я
##є
##‐
##‒
##–
##—
##‘
##’
##‚
##“
##”
##„
##†
##‡
##•
##′
##‹
##›
##⁄
##€
##↑
##→
##↓
##↔
##∀
##∂
##−
##√
##∞
##≈
##≤
##≥
##■
##□
##►
##●
##♦
##♪
##♫
##➥
##人
##出
##品
##土
##字
##幕
##影
##煤
##组
##视
##魯
##
##
##
##
##
##
##
##�
