[PAD]
[UNK]
[START]
[END]
!
"
#
$
%
&
'
(
)
*
+
,
-
.
/
0
1
2
3
4
5
6
7
8
9
:
;
<
=
>
?
@
[
\
]
^
_
`
a
b
c
d
e
f
g
h
i
j
k
l
m
n
o
p
q
r
s
t
u
v
w
x
y
z
{
}
~
¡
¢
£
¤
¥
¦
§
©
«
¬
®
°
±
¶
·
»
¿
×
æ
ð
ø
þ
đ
ı
ł
œ
ə
ˮ
α
β
γ
δ
ε
ζ
η
θ
ι
κ
λ
μ
ν
ξ
ο
π
ρ
σ
τ
υ
φ
χ
ω
а
б
в
г
д
е
ж
з
и
к
л
м
н
о
п
р
с
т
у
ф
х
ц
ч
ш
щ
ъ
ы
ь
э
ю
я
і
ј
қ
ҳ
ا
ب
ة
ت
د
ر
ز
س
ط
ظ
غ
ل
م
ن
ه
و
ي
پ
ک
ہ
ی
ख
न
प
म
र
ल
स
ो
ॐ
க
ட
ண
ி
ನ
ಬ
ರ
ೂ
฀
ก
ง
ท
พ
ย
ศ
อ
า
ไ
ᄀ
ᄃ
ᄇ
ᄉ
ᄋ
ᄌ
ᄐ
ᄑ
ᅡ
ᅥ
ᅦ
ᅩ
ᅭ
ᅮ
ᅵ
ᆫ
ᆸ
ᆼ
‐
–
—
―
‘
’
‚
“
”
„
†
‡
•
′
⁄
€
₷
→
↓
↔
−
∗
∞
≤
≥
⌘
─
■
□
►
▼
◄
●
☑
♥
♦
♪
♫
➾
ⴗ
い
か
の
ら
・
一
上
不
世
人
仄
以
你
來
公
其
刘
刚
卷
厦
司
后
哀
在
地
夢
天
女
始
子
宇
實
山
庄
底
後
得
心
情
想
愁
愛
懂
我
手
授
收
新
方
日
春
是
暗
曾
月
有
未
校
業
樣
歌
正
水
活
海
煤
王
玲
現
琳
瓣
甚
生
田
留
的
看
真
經
緣
習
聽
與
花
若
茅
薛
蛮
補
說
誰
谩
跟
路
过
過
都
铆
開
门
隆
雨
青
驴
麼





�
🇬
🇭
🎉
😂
de
la
que
el
en
los
no
las
del
un
se
es
por
##s
para
una
con
lo
su
si
esta
como
al
me
mas
mi
##n
te
pero
sobre
##a
tu
ha
este
bien
sus
eso
yo
##es
todo
le
solo
aqui
##r
cuando
asi
esto
##e
tambien
ser
ya
son
muy
todos
estas
hay
puede
fue
ahora
##o
entre
##te
sin
##do
tiene
nos
##mos
vez
##se
estoy
algo
hacer
comision
han
donde
bueno
era
dos
estados
parte
ese
##da
vamos
estado
porque
tiempo
anos
tengo
##lo
ella
he
trabajo
##l
estan
quien
nada
articulo
##on
##ia
general
quiero
desde
consejo
desarrollo
usted
hasta
esa
gracias
##mente
puedo
##me
vida
derechos
senor
soy
##t
estaba
entonces
uno
hace
paises
tan
contra
hecho
antes
informacion
##i
creo
cada
dios
dia
otros
mejor
lugar
naciones
acuerdo
seguridad
casa
##ndo
mismo
miembros
durante
mundo
mucho
##la
debe
ni
tienes
despues
unidas
##an
##d
sabes
sido
decir
eres
favor
voy
verdad
todas
internacional
personas
otra
nunca
siempre
ver
gran
sea
habia
ellos
sr
tanto
va
informe
tenemos
hombre
programa
nosotros
##y
cosas
forma
##ra
##ba
estos
otro
hola
menos
pueden
nuevo
presidente
humanos
##le
cuenta
les
tener
tipo
caso
medidas
poco
tal
estar
pais
ti
derecho
##as
sistema
periodo
quieres
nuestro
oh
siento
comite
nuestra
podria
##cion
##ta
has
ano
momento
dijo
puedes
##is
gente
grupo
gobierno
tienen
fin
tres
10
alguien
estamos
cual
##das
ir
otras
##os
reglamento
mis
sera
aun
ahi
parece
ninos
europea
mujer
nombre
toda
dias
noche
fuera
aplicacion
medio
##to
numero
proyecto
padre
nacional
union
##nos
mayor
cualquier
mujeres
hoy
algunos
actividades
##m
manera
politica
importante
ademas
nueva
servicios
presente
haber
respecto
resolucion
nadie
hacia
podemos
dinero
paz
quiere
##ar
punto
##dos
comunidad
seguro
hablar
primera
decision
esos
situacion
tenia
especial
mira
hemos
##io
social
dice
apoyo
primer
luego
mientras
dentro
partes
hijo
relacion
ley
muchos
##c
##g
ayuda
millones
12
##ado
cuanto
nivel
problema
posible
manana
productos
recursos
bajo
haciendo
claro
buena
20
##er
deberia
datos
aunque
##na
##k
espera
dicho
particular
problemas
sesiones
##u
proteccion
poder
embargo
republica
ciudad
proceso
15
familia
##les
vas
alli
esas
the
cosa
madre
visto
veces
pasado
deben
##res
sabe
tus
##h
paso
ejemplo
30
nuestros
alguna
personal
agua
mundial
segun
programas
haya
##p
sino
policia
salud
asamblea
incluso
razon
pasa
ce
##idad
##en
condiciones
unos
cooperacion
hizo
organizacion
ello
unidos
vale
apartado
papa
hombres
muchas
##emos
persona
europa
tierra
siguiente
plan
realmente
uso
saber
algunas
cuestion
hora
misma
fueron
cambio
mediante
mama
11
buen
base
todavia
##ro
##ble
mercado
000
horas
marco
europeo
mal
##nte
ante
hacerlo
nacionales
tema
control
internacionales
oficina
##1
historia
parlamento
organizaciones
dar
traves
amigo
seria
tarde
secretario
##co
atencion
centro
##re
accion
##los
##no
armas
idea
2006
gusta
investigacion
ustedes
##ca
amor
dolares
##ria
cierto
##0
servicio
anexo
trata
lado
ningun
##ce
crees
diciembre
pues
conmigo
##5
##3
##ma
asistencia
pueblo
##6
##ste
parrafo
demasiado
queria
conformidad
final
casi
##z
2005
##sa
oye
sector
lista
necesito
algun
equipo
educacion
14
realidad
##2
acceso
##b
##go
gestion
dije
2000
sentido
##de
sigue
cuatro
cuestiones
segundo
2004
camino
grandes
2003
convencion
normas
guerra
ninguna
cinco
capacidad
casos
resultados
modo
acerca
politicas
##ban
alto
directiva
mierda
meses
reunion
##8
materia
sociedad
##4
2007
empresas
ultimo
unico
van
2002
nino
necesario
of
13
18
2001
cerca
fecha
tribunal
muerte
ven
semana
contigo
importa
declaracion
objetivo
tomar
pueda
total
da
conferencia
mayoria
primero
##ron
comun
##9
calidad
publico
amigos
siendo
medios
mio
orden
##al
tratado
disposiciones
poblacion
proyectos
largo
examen
ultima
encontrar
16
objetivos
##za
##x
2008
senora
julio
fondo
significa
frente
vista
##tes
grupos
asuntos
eran
##las
corazon
miembro
tras
##f
25
libre
junio
##in
falta
##ico
llegar
##rio
autoridades
futuro
justicia
salir
demas
ve
##7
somos
oportunidad
region
produccion
puesto
cuerpo
eh
mision
##ina
dificil
##v
necesidad
propuesta
sociales
cabeza
chicos
##ido
ambiente
linea
igual
seguir
sitio
cabo
debemos
direccion
http
especialmente
nuevos
dejar
economico
importancia
medida
energia
zona
17
minutos
##ada
nuestras
papel
respuesta
suficiente
supuesto
vaya
##ica
hermano
hijos
##ga
libertad
necesita
sra
veo
valor
##ie
19
jefe
toma
##cia
mano
##so
quiza
rapido
unas
palabra
plazo
tenido
luz
pasar
debido
partir
gustaria
siguientes
chica
trabajar
dado
puerta
participacion
21
diferentes
septiembre
tratamiento
carta
pense
efectos
##dor
instituciones
comercio
os
clase
juego
principio
##tas
empleo
esfuerzos
volver
carino
fuerza
publica
espero
hablando
sistemas
informes
nuevas
oficial
adelante
grande
##ando
comunicacion
manos
sabia
nota
lucha
seis
aumento
sean
habla
principal
##ida
24
##ja
ayudar
edad
buenas
estudio
poner
00
haces
juntos
necesidades
ue
digo
riesgo
www
china
muerto
octubre
pronto
transporte
marzo
mejorar
pregunta
violencia
##rse
alla
experiencia
podra
empresa
noviembre
objeto
relaciones
interes
##tar
##tico
importantes
principios
real
serio
50
palabras
##man
##us
debo
##miento
escuela
evaluacion
practica
##ismo
creacion
mayo
vi
2009
documento
ii
siquiera
operaciones
enero
administracion
##ne
habian
opinion
haga
varios
sangre
##izacion
bastante
decisiones
and
cuales
22
posibilidad
quizas
red
estaban
formas
garantizar
hice
responsabilidad
segunda
31
secretaria
efecto
ojos
procedimiento
iba
texto
ejecucion
adios
abril
africa
unica
1999
central
##ias
miedo
norte
debate
fondos
formacion
junto
actual
mantener
pequeno
principales
##tivo
arreglo
queda
tenga
##ian
espacio
justo
facil
tuvo
##tica
pensar
simplemente
economica
100
crear
hija
genial
cuidado
llevar
medico
asunto
##w
23
superior
tio
viene
civil
fuerte
propia
##va
hubiera
serie
venir
##mo
##ntes
buenos
sesion
referencia
suerte
deja
hacen
jovenes
zonas
analisis
existe
##que
coche
sur
campo
departamento
resultado
labor
tecnologia
##ing
com
comunidades
esposa
chico
gastos
ultimos
necesitamos
representante
interior
podia
encuentra
feliz
quienes
dio
posicion
##je
presupuesto
##era
cree
##ir
actividad
reino
alta
##ras
padres
solucion
telefono
crisis
entrar
propio
regional
##ista
tendra
america
cara
lograr
##ados
tampoco
ah
do
vino
auto
san
supongo
teniendo
establecer
fuerzas
funcion
alrededor
exito
habria
documentos
mar
26
gobiernos
virtud
entiendo
hotel
in
libro
##tado
trabajadores
##jo
crecimiento
financiacion
prueba
universidad
vivir
arriba
ciudadanos
precio
producto
ves
cee
codigo
permite
seccion
mes
organismos
partido
relativas
diez
2010
estrategia
hare
pruebas
asociacion
relativa
bebe
director
preguntas
territorio
economia
mantenimiento
##ion
estudios
ambito
jesus
viaje
ellas
pacientes
caracter
puedan
quieren
web
ambos
articulos
varias
mejores
40
causa
iglesia
york
hey
##bles
ingles
vease
llama
pagina
##tion
hago
regionales
abajo
aire
autoridad
vuelta
diciendo
27
pequena
seran
debes
discriminacion
israel
probablemente
##ton
acabo
igualdad
mensaje
precios
##ge
28
semanas
##tiva
cargo
legislacion
obtener
tipos
francia
viejo
promover
refiere
acciones
estara
cambios
podrian
##icos
contacto
sola
terrorismo
niveles
##zo
conseguir
cambiar
pobreza
puntos
febrero
ministro
29
recomendaciones
victimas
cielo
fiesta
##iendo
escucha
evitar
llamado
queremos
tales
dijiste
regimen
pesar
locales
organos
representantes
sol
trato
comida
fuego
procedimientos
joven
tecnica
actualmente
consecuencia
dejame
pasando
coordinacion
doctor
internet
sabemos
2011
practicas
cantidad
genero
competencia
ministerio
par
aspectos
cuarto
obstante
pago
sostenible
venga
conjunto
ejercicio
exactamente
promocion
##ncia
banco
deberian
expertos
hayan
reduccion
##ito
asimismo
politicos
deberias
local
usar
contexto
mesa
propuestas
##cio
defensa
dr
entrada
##adas
##ran
correcto
naturaleza
presentacion
estuvo
ido
permanente
agosto
aquellos
creer
elementos
deseo
animales
atras
hiciste
john
origen
respeto
resto
compromiso
registro
continuacion
movimiento
musica
espiritu
mismos
rey
##tan
di
directamente
espana
fui
lleva
llevo
##ciones
1998
amo
buscando
especiales
habitacion
reducir
conocimiento
dispuesto
protocolo
##ch
corte
rusia
modelo
capital
dejo
fuente
##il
aprobacion
deberiamos
dicen
listo
noticias
solamente
utilizar
sexo
##ios
acuerdos
lugares
realizar
##ura
pena
##tos
cama
esperar
industria
##nes
alemania
establecimiento
llamo
venido
actos
loco
puestos
termino
calle
convenio
lejos
saben
construccion
curso
mandato
pueblos
habra
material
quisiera
leyes
##dores
cumplimiento
ex
oficiales
temas
anterior
diferente
junta
ofrece
##acion
##nas
dices
debera
instrumentos
pensando
planes
campana
compania
llamada
cultura
considera
generales
mitad
vigor
##el
##vo
dialogo
estabas
necesitas
utilizacion
##rte
funciones
contenido
dame
hara
obligaciones
fe
regiones
rio
salvo
detras
pide
reuniones
comer
duda
ejercito
funcionarios
mexico
penal
politico
totalmente
bar
buscar
familias
pelicula
segura
valores
vivo
##son
drogas
llego
piensa
##pa
menudo
mucha
presencia
2012
dolor
peor
##ter
60
clientes
iniciativas
oido
pertinentes
reforma
relacionados
unidad
##ales
cuentas
global
aplicar
archivo
culpa
diario
iniciativa
malo
##tivos
noches
unido
##ck
economicos
natural
proteger
##gar
completamente
financieros
militar
podran
trabajando
cuadro
cumplir
propiedad
tercer
adopcion
capitan
##rme
capitulo
murio
nucleares
siete
##ita
##ticos
area
tomo
tuve
jugar
podrias
##eo
##ry
intereses
obra
pie
conozco
enfermedad
establecido
resulta
tratando
camara
encima
hospital
proximo
arma
destino
gubernamentales
imagen
ingresos
vete
##ng
colaboracion
conocer
desea
esperando
humano
peligro
relativo
sala
##ley
consecuencias
disposicion
figura
hermana
inversion
morir
tratar
vosotros
##cha
##gue
##ka
solicitud
##lla
adoptar
empezar
funcionamiento
iii
mente
ok
conflicto
dicha
diferencia
escrito
delegacion
elecciones
especie
muestra
perdido
error
mercados
mil
prevencion
profesional
##ri
##ros
##ve
1997
acaba
asegurar
preocupacion
ud
fundamentales
ropa
pagar
privado
voz
##idas
centros
etc
india
nina
autor
baja
completo
condicion
operacion
pienso
relacionadas
##ula
aumentar
chicas
existen
trafico
vemos
reserva
conflictos
contrario
costa
llegado
media
financiera
dan
agentes
carga
carne
finalmente
sectores
##pe
mia
encontrado
fines
materiales
popular
hubo
incluye
negocios
presentar
tengan
mala
motivo
recibir
recuerdo
basta
normal
responsable
llamar
marcha
seguimiento
trabajos
version
arte
capacitacion
concepto
perdida
amplia
edificio
europeas
italia
ayer
blanco
duro
menor
perdon
terreno
##ya
alimentos
confianza
eleccion
estudiantes
gusto
ocho
tratados
##th
entidades
incluidos
##ero
humana
##be
considerando
pidio
credito
deje
determinar
esten
finales
hacemos
instituto
necesarias
participantes
requisitos
suelo
2013
agente
establece
maximo
dime
estructura
hicieron
increible
proposito
to
voluntad
##dia
##istas
##um
bienes
consiguiente
division
##et
##izar
alcanzar
examinar
foto
diseno
eficaz
razones
constitucion
haria
japon
pequenos
siguen
vuelve
alquiler
busca
clave
coches
1995
hagas
juicio
negocio
perder
peso
plenamente
presentado
siglo
vio
1996
anual
color
indigenas
pase
prensa
presion
reglas
##bo
##ur
escala
fiscal
gas
puta
sucede
supone
civiles
cliente
consumo
dano
marido
votacion
##dad
##di
cafe
contrato
criterios
fundamental
menores
observaciones
pequenas
planeta
tercera
capaz
david
exterior
matar
matrimonio
necesarios
negociaciones
publicos
venta
cualquiera
maldita
mecanismos
odio
reconocimiento
suena
##ual
cumbre
fotos
integracion
resoluciones
visita
deberan
procesos
verte
democracia
distintos
doble
enfoque
ocurre
euros
miles
afuera
ganar
inmediatamente
participar
democratica
minuto
pregunto
##bra
abogado
carrera
delito
letra
riesgos
video
##izado
caja
ciencia
cristo
hogar
necesitan
presidencia
primeros
recuerda
terminado
terminos
##ine
##ki
boca
opcion
pacto
##ll
dosis
vigilancia
##ea
##ke
##lar
adoptado
aquel
extrano
recibido
asia
completa
darle
financiero
incluida
intento
oro
santo
secreto
supervision
##tivas
aeropuerto
bano
salida
sexual
derecha
izquierda
oportunidades
proxima
vidas
##sion
asesino
comunicaciones
conocido
demonios
dormir
emergencia
militares
original
200
alcance
asesinato
comerciales
directrices
esperanza
minimo
preocupes
refugiados
##ces
##tura
negro
perro
pudo
##ts
beneficios
disponibles
preparacion
tasa
usuarios
90
adicionales
comprar
funciona
instrumento
pobres
##llo
anoche
consultas
cuya
grado
hambre
##ue
cuyo
europeos
mayores
previsto
publicas
##dy
autorizacion
facilitar
isla
perfecto
pudiera
uh
##ente
conocimientos
decirle
encuentran
hechos
naturales
victima
##ic
claramente
diversos
fuentes
grave
profesionales
vision
##ino
delante
digas
encontre
escuchar
ire
jack
necesaria
principalmente
vehiculos
##ti
35
500
agricultura
circunstancias
comercial
conforme
equipos
hablo
imposible
instalaciones
organismo
prision
##mento
constituye
declaraciones
desarme
honor
jamas
##idos
##ld
distribucion
obras
podriamos
propios
tarea
##ua
acto
adonde
fase
permitir
posibles
revision
santa
tenian
62
ee
eliminacion
independiente
llega
paris
pone
presento
raro
##amos
##bilidad
##ly
##rios
##tacion
aguas
debia
demanda
dificultades
dire
entender
iran
metodos
television
tome
visitas
vive
##ivo
2014
continua
economicas
ensenanza
idiota
pedir
pobre
aproximadamente
ayudas
conclusiones
diversas
intencion
marca
nuclear
profesor
resolver
respecta
via
##osa
ataque
on
provisional
regreso
titulo
verdadero
##mi
##tada
amplio
correspondientes
disponible
iraq
redes
sede
tomando
##or
anteriores
debajo
estacion
larga
mecanismo
tienda
uu
vuelto
##der
##rar
foro
monton
categoria
maldito
##den
1994
cita
contar
distintas
duracion
intercambio
##rias
corea
libros
preocupa
radio
simple
accidente
cancion
cuantos
diga
existencia
factores
indica
maria
medicamentos
##iva
caracteristicas
desarrollar
eficacia
esfuerzo
incluidas
recientemente
representa
requiere
senorita
##rd
dichos
frances
occidental
siente
sueno
tareas
45
80
conoce
ninguno
piel
puerto
realizacion
relativos
velocidad
amenaza
brasil
busqueda
estilo
explotacion
impacto
pesca
sentir
tamano
##ed
##imos
aprender
incluyendo
juan
publicacion
agencia
aprobado
canada
culturales
inicio
presenta
senal
32
alma
bajos
comunes
diablos
encuentro
graves
motivos
situaciones
vih
abierta
celebrada
cultural
ideas
inversiones
pensaba
##ty
actuales
dejado
dichas
importacion
verlo
add
ciudades
elaboracion
excepto
incluido
puso
tiempos
##ticas
70
don
entiendes
exteriores
haz
maestro
n°
permiso
barco
cancer
leer
oferta
progresos
sam
veras
##lan
comisario
determinacion
esferas
muertos
querido
srta
terminar
##ccion
##j
##nta
1990
arabe
conferencias
correo
distancia
excelente
mejora
ninas
piensas
seas
##ha
##lado
amiga
federacion
frecuencia
metodo
oriental
querida
sida
volumen
##nto
##sta
contribucion
estrategias
nombres
##gan
##ies
comunitario
conciencia
estare
intervencion
pies
tendria
##cto
##gado
##mas
##nda
danos
estabamos
estaria
existentes
exportacion
familiar
figuran
hermanos
incluir
mire
ofrecer
peticion
##ana
##po
decidio
dijeron
george
judicial
tecnicas
##che
apoyar
archivos
areas
creen
disculpe
irme
juegos
lamento
posibilidades
trabaja
##icas
asociaciones
aspecto
basicos
crimen
detalles
deuda
enfermedades
garantia
llegue
obligacion
pocos
adecuada
alguno
clara
creado
financieras
humanidad
incluyen
km
londres
novia
placer
planificacion
recomienda
envio
exposicion
opciones
parr
realizado
##cos
55
animal
club
consulta
introduccion
islas
legal
org
paciente
rapidamente
tom
unidades
##by
##ger
##sas
1992
callate
contiene
cuba
depende
dispone
evolucion
imagenes
milenio
parecer
verano
##dio
actuar
especies
impuestos
transferencia
utiliza
interesante
investigaciones
mismas
proporcionar
quieras
##tando
##un
juridica
mato
oriente
puesta
tren
##tiendo
cena
espanol
organo
particularmente
sal
2015
adhesion
considerar
guia
irlanda
vienen
##jas
basado
empleados
fuiste
juez
momentos
muchachos
recomendacion
respuestas
tribunales
usa
##ny
azucar
efectivo
ejecutivo
escuelas
hermosa
recuerdas
tecnologias
##ara
##cas
##iza
##tra
##zado
anuncio
encanta
epoca
tomado
turquia
##ut
34
abierto
conclusion
continuar
contribuir
federal
parecia
tuyo
viven
compromisos
estuve
familiares
interesados
michael
nueve
pleno
progreso
silencio
util
abre
aplicable
delitos
metros
misiones
nacion
podido
prioridad
##diendo
##gio
##ieron
##ler
corto
importe
inferior
limite
reciente
responder
seguros
unicamente
##cho
##izo
##logia
ambas
eliminar
estadounidense
expresion
joe
luchar
medicos
parque
propias
rapida
sientes
vehiculo
victoria
cocina
correspondiente
egipto
encontramos
esposo
ordenes
reservas
satisfaccion
soluciones
superficie
##dido
decirte
destruccion
independencia
mercancias
plano
premio
territorios
vacaciones
vuelo
##ten
##tro
agradable
ala
apenas
comenzo
comunitaria
diferencias
directa
electronico
entendido
estabilidad
evaluar
mg
perspectiva
religion
terceros
verde
##nia
1993
climatico
elemento
infraestructura
llevado
memoria
miras
preparado
rico
transicion
ventana
verdadera
##bre
aprobo
costo
for
frank
industrial
lengua
recuperacion
tierras
##des
##lacion
avion
enmiendas
fisica
lineas
##ad
##men
##sos
##zar
antiguo
clases
colombia
costes
inicial
intentando
loca
logro
luna
preciso
prestar
reina
##cido
##idades
56
argentina
cerebro
definicion
escuche
juridico
ministros
oficinas
presidenta
roma
##cta
##mon
##rado
adoptadas
aplicables
bancos
banda
caballeros
ciento
competentes
contratos
encontro
esfera
especificas
pelo
quedate
##eron
57
conexion
haremos
quiera
tranquilo
##lada
##ni
aceptar
actualidad
adultos
disfrutar
esencial
estatuto
periodos
podamos
quedo
utilizado
voto
##aba
##gas
##tados
aca
azul
comentarios
conoces
detencion
dirigida
preve
prohibicion
soldados
trate
universal
##able
##bia
##rnos
abrir
cambiado
determinados
motor
plantas
salio
tarjeta
tendremos
tenias
##ial
##it
##llas
carcel
casas
decia
determinadas
entrega
extranjeros
hablas
productores
regalo
revolucion
##ante
adicional
asociados
cuantas
divertido
fomentar
leche
recordar
responsables
seres
violacion
##gos
##ndose
95
afganistan
australia
ay
dile
fomento
identidad
muchacho
ocasion
pagos
pedido
suiza
##ner
05
adecuado
anteriormente
cabe
dictamen
enorme
estupido
hermoso
proliferacion
sacar
siga
##ko
##land
##tal
comparacion
compartir
latina
novio
observa
preparar
sale
segundos
tecnico
##cimiento
##ho
##id
caballo
celebracion
controlar
diria
enmienda
escena
espere
experiencias
fortalecer
institucion
navidad
paul
peter
playa
porcentaje
salvar
volvio
##cado
##car
##ento
##li
300
caribe
conservacion
discurso
emisiones
maldicion
mirar
ocupado
opiniones
personales
plena
potencial
prioridades
relator
tendran
tonto
##cida
##dida
##ns
carretera
componentes
construir
entra
limites
parecen
prestacion
similar
terrible
violaciones
##izada
##tio
apartamento
beneficio
consumidores
contribuciones
directo
esperamos
hablado
iv
oir
transparencia
usuario
##eta
##ques
##ren
activos
angeles
aquella
bonito
clic
congo
inteligente
ira
petroleo
ponente
pude
residuos
caliente
congreso
crei
das
fabricacion
minas
planta
recurso
suecia
sustancias
temo
tengas
turismo
vuestro
##bas
##bi
##ible
##lin
##rs
##tt
36
agricolas
bolsa
comercializacion
constante
errores
extranjero
firma
llame
mapa
periodico
reconoce
##ena
##sen
##ular
##ver
1991
basura
culo
fronteras
habitantes
maquina
probable
viernes
viste
##ber
##hi
bienestar
elegir
etapa
piso
robo
temperatura
##dora
##ice
59
92
batalla
charlie
excepcion
frio
ginebra
gracioso
idiomas
informo
interno
lideres
new
precisamente
quedan
regresar
senalo
##mar
##oso
calor
destinados
dulce
estrella
flores
hagan
lider
partida
tortura
triste
33
ampliacion
diversidad
enviado
estes
estuviera
ganado
hable
intentar
ojo
poblaciones
ten
##at
##illa
01
58
absoluto
basada
boda
cartas
causas
decidido
eras
propone
traje
votos
##ci
##gia
antigua
bruselas
candidatos
cientificos
cn
dando
gustan
hicimos
infancia
lee
palestina
pnud
privada
##endo
acta
decirme
estadisticas
madera
modelos
modos
pasos
suministro
##ney
##torio
controles
medicamento
normalmente
oracion
portugal
provincia
rato
resistencia
sintomas
temprano
##am
##amiento
##tia
2016
37
75
chile
comandante
enviar
escribir
estudiar
eventos
inmediato
inteligencia
puertas
sorpresa
suficientes
titulado
vieja
##dero
##inas
##uta
48
amable
compra
detective
estrellas
hablamos
instrucciones
internos
mantiene
oeste
sabias
bienvenida
categorias
combatir
cumpleanos
doy
horrible
lleno
mando
maravilloso
noticia
solicitudes
suficientemente
##aria
##ato
##ment
##ora
##ral
asesoramiento
avances
bosques
confiar
cursos
documentacion
encargado
entorno
garantias
importaciones
mirando
pacifico
posteriormente
presentes
rural
tecnicos
##gada
##rada
decidir
demostrado
facilmente
habitaciones
indicadores
racial
sientate
similares
siria
sucedio
vuelva
vuestra
##grafia
##izados
##jado
##nse
consolidacion
corresponde
creciente
dieron
electoral
entidad
evento
frontera
futbol
habeis
infantil
interna
mike
procedentes
responsabilidades
sentencia
sentimientos
##bio
##he
##mia
44
cine
comienzo
determinado
empezo
muerta
orientacion
prisa
recordando
tasas
teniente
##cias
##itar
##uda
42
cantidades
ciclo
comportamiento
corrupcion
esperaba
espiritual
evidencia
io
laboral
ocurrio
rendimiento
representacion
suma
trabajan
##ire
##ul
96
adentro
delegaciones
donantes
efectiva
hacerse
insta
masa
observacion
terroristas
viajes
washington
##ador
##aron
##ol
##°
acontecimientos
activa
alianza
circulacion
considerado
cuotas
decide
idioma
igualmente
luces
numeros
pocas
polonia
##ez
##ulo
##zas
alegro
baile
canal
capaces
celebrar
cerveza
companero
conducta
costos
descripcion
entiende
firmado
fortalecimiento
james
jefes
kilometros
listos
plataforma
reales
recibio
viento
acabado
aleman
apertura
creemos
equilibrio
estaran
estatal
innovacion
nave
prevenir
pro
probar
salvador
sanciones
senalar
tuviera
ventaja
##tina
abordar
alimentaria
armados
ben
breve
caer
ciertas
colega
creditos
dll
entro
establecidos
grecia
identificacion
intenta
laboratorio
libertades
modificacion
partidos
piedra
primeras
utilizando
ventajas
vistas
##ey
##imo
co
difusion
firme
jardin
mundiales
museo
oposicion
realizados
recientes
reforzar
residencia
rica
tia
transmision
##damente
##gi
##nt
98
adaptacion
ayudarte
bill
broma
carajo
cargos
evidente
lleve
mensajes
pelea
puente
solia
38
activo
bases
bomba
companias
composicion
distrito
influencia
llamas
medicina
noruega
pan
peliculas
situado
unicef
universo
usando
vayan
vea
viendo
##ario
##ers
##lando
##lia
##tadas
##ulacion
ataques
cadena
combinacion
convertido
creia
disculpa
ensayos
espalda
especificos
extraordinario
factor
henry
humanitaria
infierno
irse
juro
mm
pareja
principe
profunda
reconocer
ritmo
tradicionales
##itos
##jes
enemigo
formular
international
perdidas
producir
profundo
prometo
proximos
resumen
rojo
suenos
teatro
tuya
ucrania
vere
##uro
400
absolutamente
afectados
altos
altura
arabes
clima
comenzar
cruz
cuello
dale
incremento
juridicos
mostrar
permiten
pido
potencia
seleccion
software
testigos
vayas
##sh
1989
aparece
calles
cifras
disparo
llave
llevan
maxima
millon
nacimiento
sitios
testigo
toneladas
utilizados
##ps
04
ajuste
arbol
barcelona
blanca
bosque
considero
consiste
coste
edicion
escuchame
gratis
ideal
impedir
impresion
liberacion
poderes
quedar
senala
senorias
sudan
##entes
##ima
61
amenazas
aprobada
belleza
cierta
constituyen
corriente
definitivamente
desastre
llaman
palestino
pasada
publicado
reaccion
sierra
suya
##tir
##ulado
##vas
43
contratacion
daniel
dificiles
dispositivo
edificios
estructuras
euro
herramientas
licencia
lindo
mencionado
siguiendo
trasero
##tino
##zada
agricola
alimentacion
bienio
concesion
crea
discapacidad
ejecutiva
establecidas
expresa
legales
minorias
parrafos
pecado
quede
sociedades
utilizan
vienes
##bar
##dura
##encia
##ff
##nd
##ones
##rlo
##uales
##via
##zan
54
hogares
it
llamadas
objetos
peligroso
prestamos
reformas
solidaridad
temporal
vecinos
windows
##dan
##eja
##tis
abuelo
dare
dirigentes
enfermo
gama
guinea
interpretacion
lago
llegada
ong
pensado
sonido
vestido
vivienda
vulnerables
##lio
##rica
##vio
##wn
anda
aplica
brillante
calma
caminar
cielos
cientifico
colegio
comisionado
descubrir
establecen
jimmy
llena
ponerse
previstas
previstos
procede
temporada
tendras
totalidad
##iga
##jan
##lle
##lon
63
65
concreto
convirtio
crimenes
eficiencia
impuesto
malos
martin
miren
ocupacion
positivo
regla
salon
sargento
seguido
trae
traer
vender
viva
##cer
##ct
##ks
##pado
02
abuela
acoge
bonita
consciente
consenso
continuo
conversacion
detener
eficaces
escribio
guardia
habido
harry
inclusion
individuales
max
medica
modificado
movil
notas
paginas
palestinos
practicamente
robert
teoria
tv
vistazo
##eros
##wa
46
49
ambiental
ampliar
comprender
debates
ejemplos
equivocado
generalmente
hazlo
historias
inglaterra
kg
ocurrido
perfectamente
quedarse
recuperar
restaurante
ruta
secundaria
sirve
tendre
tuvimos
##elo
##st
afirma
ambitos
aparte
brazo
condado
conducir
conseguido
debian
demuestra
generacion
hacerte
individual
indonesia
intelectual
lectura
malas
plaza
ponga
produce
promedio
rurales
salido
##sis
##vi
cierra
ciertos
dara
diablo
especifica
facebook
fuese
gloria
gracia
instalacion
llamamiento
obviamente
pasara
posterior
preguntar
quedado
##nce
##ud
##udo
39
acabar
acceder
ama
dependencia
domingo
ensayo
escenario
francisco
independientes
interesado
libano
locura
madrid
marcas
parar
paseo
perjuicio
perra
quincuagesimo
sensacion
servir
superiores
traido
virus
##im
53
acaso
agenda
asiento
campos
competente
convertirse
enlace
especifico
estatales
eur
gano
ilegal
jose
multiples
obstaculos
pakistan
pared
socios
tuvieron
##00
##ear
##fa
##iles
52
apoya
arboles
beber
cierre
colegas
concretas
consideracion
entrara
entrevista
haras
indice
introducir
invita
jugando
linda
logrado
moneda
montana
perfecta
permita
repente
secretos
teniamos
ultimas
vacio
visitar
##gues
##iste
##nza
alumnos
aplicaciones
as
celebrado
comienza
dura
empieza
esenciales
exportaciones
golpe
integrado
interesadas
joder
maneras
ocasiones
onu
paquete
particulares
piezas
saberlo
superar
torno
93
99
adolescentes
ambientales
aprendizaje
apuesto
autobus
cayo
comisiones
copa
correcta
elaborar
entero
libres
lunes
metas
proveedores
refiero
restricciones
super
tercero
veamos
viena
##ee
##tido
##una
ausencia
austria
basa
celebro
cerrar
certificado
danny
dientes
fuertes
jim
kosovo
mirada
negociacion
perspectivas
polvo
tendencia
vine
##ese
##ivos
##racion
afecta
alegra
ayude
cenar
cerrado
cirugia
coronel
deber
declaro
discusion
droga
estais
exige
hayas
hecha
imbecil
ofertas
presentan
quimicos
sigo
sois
tony
vera
##sar
##฀
almacenamiento
bienvenido
buques
cobertura
colores
competencias
corre
destinadas
destruir
disponibilidad
estandar
jurisdiccion
movimientos
quinto
quise
reloj
ruso
sudafrica
tradicional
ventas
volvere
zapatos
##bamos
##cular
##ene
##han
acero
componente
copia
des
desempleo
fabrica
formulacion
instancia
institucional
mentira
permitira
raza
significado
tantos
##chas
##ificacion
##rian
##tieron
africana
capacidades
comunitarias
concentracion
consultiva
conviene
cuerpos
dejalo
diputados
escapar
estaremos
fundacion
llevara
merece
necesitaba
numerosas
numerosos
periodicos
perros
pistola
querias
recibe
sencillo
seras
solicitar
viviendo
##can
##gen
##ls
##toria
##ville
51
abogados
anillo
anuales
ayudara
bob
camion
conversaciones
correr
disminucion
enseguida
hubiese
invitados
modificar
olvide
organizada
pensamiento
pertenece
presentara
puedas
revista
ruido
senores
serbia
sexuales
sospechoso
##ay
##dencia
##eras
##isa
##itas
##nie
##vado
administrativos
aprovechar
art
calculo
california
ciertamente
culpable
ecus
estaras
estrecha
georgia
haran
hincapie
iremos
ma
moral
pista
previa
producido
proporciona
realiza
realizadas
revisar
seleccione
sere
um
##selo
##ss
##tor
##tre
##van
##ven
94
aceite
actuacion
adecuadas
alegria
audiencia
cabello
celulas
darte
descanso
expresar
funcionar
interesa
invito
judiciales
mental
peru
registros
representan
sepa
##ano
##mina
##pos
##rle
##sado
anadir
celebrara
cientos
conocida
detalle
dinamarca
fueran
habias
informar
iniciar
juventud
manual
miercoles
preocupado
primaria
publicidad
rumania
sufrido
verme
##arse
##iamos
##mientos
##tizacion
41
alienta
autores
combustible
comprension
electricidad
exacto
habida
heroe
indican
lados
oi
pregunte
preocupaciones
razonable
recien
richard
sentado
transformacion
transito
##eran
##rdo
##si
##zos
1985
alcanzado
auditoria
beneplacito
extra
identificar
is
llegaron
llevas
observo
profundamente
propuesto
realizada
regular
turno
vuelos
##aste
##dado
##ira
##ung
artista
aves
bulgaria
ciencias
conocen
cuarta
debio
decirlo
deseos
explicar
fisico
liderazgo
migrantes
muestras
norma
proceda
racismo
requieren
satisfacer
will
##dra
##ds
##pas
##rda
boton
cometido
conocemos
consultar
destaca
discutir
esperen
eu
explica
formato
fuimos
haberse
humanitario
ia
invierno
ofrecen
privadas
residentes
seguira
seguramente
templo
textos
toca
traduccion
variedad
##ah
##em
##iente
##tu
##ure
85
91
alcohol
bajar
bosnia
bretana
caida
chipre
cientifica
constantemente
dejes
disco
ecuador
especializados
fabricante
gasto
imperio
intente
jueves
martes
mate
nicaragua
ordenador
organizar
pantalla
perdona
podian
presentada
reglamentos
silla
##ela
##fe
##ft
##gados
##iera
##mentado
##mer
##tte
1987
companeros
corriendo
dignidad
embarazada
estudiante
jane
margen
marina
obligatorio
ojala
pablo
permitido
tanta
veremos
voluntarios
##arios
##berg
##giendo
##inado
##len
##ris
##uo
adopten
arena
asilo
belgica
checa
chino
conoci
consejos
darme
demostrar
derivados
destinado
ejercer
estuviste
expreso
guatemala
haberlo
hacerle
hubieran
llamare
matado
mencionados
nacido
oscuridad
periodistas
pescado
post
referencias
ricos
seminario
solos
trampa
##burgo
##til
alerta
alternativa
angel
bromeando
charles
conjunta
considerable
consideran
contaminacion
cristianos
delincuencia
duele
economias
elegido
espacial
estadounidenses
estrategico
formula
herramienta
irnos
islamica
mezcla
nick
observadores
policias
poniendo
primavera
respetar
suyo
tantas
tocar
uds
unctad
venezuela
##aje
##dieron
##jar
##ky
##lly
##rita
##ulas
##utas
cambia
cubrir
dejan
forman
futuras
huevos
integridad
materias
nena
nuevamente
organizado
pantalones
periodista
piloto
pudieran
querer
trago
tratos
uniforme
volar
##cito
##fico
##rial
##var
09
97
abuso
altas
aniversario
aplicara
artistas
avanzar
cansado
cercano
columna
condena
considerablemente
criminal
cuesta
damas
doce
gay
hielo
impulso
integral
intervenciones
maquinas
mary
nacionalidad
palacio
permanecer
personalmente
roja
show
socorro
urgente
velar
##eno
##gica
##tida
06
1°
47
alex
barrio
caballos
cien
critica
dejare
denuncias
emision
examenes
limpio
llegara
luxemburgo
muestran
parcial
peces
pensamientos
perdio
reacciones
reconstruccion
respectivamente
sentimiento
tardar
techo
termina
timor
##didas
##eracion
##ere
##fo
##itario
##nea
##uras
##val
##yo
##zca
03
150
adquisicion
beso
bolivia
computadora
ei
especificamente
extension
finlandia
informaciones
leona
llaves
llevando
mark
molesta
montanas
nacio
naturalmente
ocupa
omc
pasajeros
patrimonio
permanentes
positiva
proceder
sabido
##ang
##lidad
##melo
##tions
1988
87
caballero
comprobar
consentimiento
contactos
decreto
embajador
hoteles
israeli
olvidado
pese
podremos
preparados
prestaciones
propiedades
quedara
saco
sujeto
titular
use
vamonos
verdaderamente
##bido
##bir
##ibles
##ificado
##illo
##jos
##vos
blog
brazos
campamento
campanas
chris
come
cuyos
defender
desafios
dudas
encargados
felicidad
fiscales
hablan
iguales
irte
juridicas
modificaciones
nervioso
promesa
repercusiones
rostro
senti
verificacion
##con
##dir
##icion
##my
##urar
adecuados
adelantados
agradezco
amistad
bailar
coger
comisaria
comunitarios
corta
defensor
dirigido
efectivamente
enemigos
fenomeno
investigadores
judios
limpieza
llevare
lluvia
pertinente
piernas
pretende
recoger
refleja
relativamente
retiro
soldado
subcomision
tarjetas
tiro
vendra
##her
##icia
##par
##riendo
##tismo
##way
88
actores
adn
amy
aquellas
atender
casado
celular
dama
decada
disfrute
dueno
estupendo
exhorta
formar
hungria
jueces
marcos
modalidades
modifica
muere
operadores
oscuro
ronda
siguio
sujetos
tradicion
tranquila
treinta
##ac
##fia
##fica
##ford
##ide
##ioso
##ril
##rina
77
americanos
apartados
apropiado
biblioteca
comprendido
conjuntamente
convierte
corazones
cuidar
den
desayuno
encontraron
escuchado
estancia
inocente
manejo
marruecos
meta
negativo
notificacion
pag
perdi
prevista
realizan
recuerdos
tel
ultimamente
verla
##ate
##bal
##bando
##cina
##dar
##ok
##usa
alojamiento
asesor
asumir
aviones
aviso
castigo
certificados
comites
debi
electronica
flujo
hiciera
html
inspector
letras
llevaba
locos
malta
oficialmente
pensiones
perfil
posteriores
publicaciones
realizo
reparacion
saliendo
sigan
steve
suele
tommy
toque
trabajado
universidades
##gs
##ificar
##ity
##ji
800
acepto
actitud
administrativas
agricultores
botella
cero
competitividad
consiguio
croacia
decenio
definir
desastres
dimension
exclusivamente
fria
futuros
gana
gira
gobernador
impresionante
limitaciones
llegamos
metal
monedas
observar
online
panama
podras
quinta
reclamaciones
rehabilitacion
rock
ryan
seminarios
supremo
ubicacion
verguenza
world
##bro
##dera
##imiento
##logica
##pone
##rn
##tario
07
accidentes
arroz
asistir
cifra
clasificacion
cp
deporte
diste
entendimiento
espectaculo
estructurales
famoso
finanzas
francesa
historico
huellas
implica
llorar
papeles
plata
prestamo
prima
privados
proporcion
raiz
recogida
robar
sarah
semillas
viejos
vuelvo
##ai
##amente
##doras
##itado
##ivas
##izadas
##mado
##nada
##nica
1980
1986
afectan
album
alcalde
asesinado
ayudarme
cable
camaras
construido
despierta
detenidos
empezando
encantaria
encuentre
eramos
externos
formulario
ganas
hagamos
independientemente
indicar
italiano
jesucristo
jurado
limitada
majestad
mejoras
negra
normativa
pecho
pintura
planos
posee
reciben
recibieron
regimenes
respectivos
sabado
salga
terapia
##ecto
##field
##gna
##ick
##liza
##smo
##urt
##ux
administrativo
americano
ampliamente
antecedentes
asignacion
bella
canciones
carlos
complicado
conducto
considerarse
contenidos
criterio
cultivo
cuyas
debil
dejarlo
desarrollados
ed
enlaces
eric
espacios
et
festival
habitual
indemnizacion
informado
inspeccion
inyeccion
listas
manifiesto
paga
posiciones
presta
reconocido
ridiculo
senoria
separacion
serian
signos
sir
tailandia
termine
tropas
videos
vivos
yugoslavia
##ctos
##ila
##ise
##rico
barcos
biblia
calendario
cantar
causar
claridad
combate
constitucional
conveniente
cuentan
dedicado
dirige
echar
empresarial
entrenamiento
equivalente
estadistica
estima
existente
extrana
frecuentes
funcionario
herzegovina
industriales
inmigrantes
peligrosos
penso
pieza
ponen
sigues
somalia
subir
william
##ata
##diente
##ique
##ker
##lados
##rt
##stas
##trado
1o
aceptacion
acusado
almuerzo
alternativas
argumento
ayudarle
ayudo
bordo
celebra
democratico
eficiente
elevado
encontrara
enfermera
entradas
habiendo
hojas
huesos
iban
ilegales
individuos
invitado
llevaron
logros
manejar
mirame
ml
ordinario
pensamos
permitan
plazos
quedarme
rechazo
tarifas
thomas
venganza
vinculos
vos
##ctiva
##ms
##posicion
##radas
##rta
##zon
89
activamente
adam
analizar
aprueba
basica
clinica
cono
continente
conto
corrientes
cumple
debidamente
desaparecido
desempenar
digamos
establecio
estando
frase
gato
hacerme
hierro
ilicito
inmigracion
intentado
jehova
maravillosa
patron
piensan
piscina
rayos
retos
rios
roto
sentia
septimo
suelen
tiendas
utilizarse
##enas
##tros
adopte
apropiadas
aumentado
berlin
candidato
centrales
ciudadano
cola
concluir
confio
dejara
desafio
desaparecio
distinto
doc
efectivos
escolar
escribe
experto
explicacion
herida
herido
ibas
infeccion
ingreso
johnny
lanzamiento
llamaba
moscu
oceano
opera
operador
operativo
oral
parecido
pierna
princesa
seno
st
tesoro
testimonio
ubicado
usado
viviendas
##gy
##iro
##ite
##mica
##midad
##rados
##remos
##rra
250
adjunto
aparentemente
armadas
billy
bombas
certificacion
circulo
completar
comprende
cuento
custodia
defensores
desarrollado
desearia
entera
esperan
examino
felices
israelies
libras
limitado
minima
mios
pareces
pedro
plantea
requisito
responde
solar
supervivencia
taxi
tendencias
tonterias
virgen
##bs
##cieron
##eas
##ines
##ip
72
abarca
aereo
alemanes
basicamente
basicas
bebes
cae
caminos
convertir
deficit
dejando
dra
encuesta
energetica
estomago
estuvieron
extremo
fbi
fechas
financiar
gaza
habilidad
haiti
indicado
indico
jugadores
legislativo
monstruo
necesitar
obtenido
pasan
permitio
preciosa
presentadas
presentados
quedarte
querria
quiso
rachel
ratificacion
reclamacion
refieren
relacionado
restaurantes
siglos
suspension
valle
##ham
##nal
##osas
##rie
##turas
##uno
ac
almas
anna
antiguos
armenia
avance
averiguar
basico
castillo
caza
complejo
dada
dedo
detallada
digital
dispuestos
embarazo
exigencias
fantastico
finalidad
genio
hong
institucionales
intergubernamental
llegan
metro
peligrosas
populares
puertos
retorno
romper
teneis
traslado
vayamos
votar
yendo
##au
##ducir
##eto
##ibilidad
##ig
##mes
##od
##ramos
##rin
##rir
##rto
##san
##teo
##ude
600
64
78
abandonar
aparato
asentamientos
autorizado
bajas
concretos
configuracion
detenido
ejecutar
empleado
escucho
facultativo
fotografia
generaciones
insuficiencia
investigar
kong
leon
libia
longitud
mencionar
obligado
ordenacion
pedi
rara
religiosa
salto
santos
seguimos
senoras
significativa
significativo
socio
transportes
vias
you
##cidas
##dica
##ecido
##gando
##logico
##om
##tista
##trada
##trar
armado
armonizacion
beneficiarios
charla
consigue
contingentes
declarado
dejaste
desempeno
disculpas
dispositivos
exclusion
generos
hoja
inmediata
inscripcion
jean
juntas
laborales
limpia
madres
mencionadas
millas
nigeria
poderoso
ponte
ray
regulacion
relieve
represion
senales
sexto
soberania
sube
trajo
vicepresidente
##ables
##ctor
##culo
##ego
##eos
##mite
##rre
##ume
##vis
adopto
aparecio
arreglar
aseguro
ayudame
borracho
carbono
ceremonia
colectiva
consultivo
cortar
cuan
cubierta
despacio
enamorado
encargo
eslovenia
estable
gravedad
ibid
incorporacion
informa
lastima
leo
magia
moderno
negros
ocupan
olvidar
pension
preparando
productor
puto
renta
subvenciones
volvera
##antes
##ao
##bie
##ctado
##gir
##ides
##ladas
##rno
##sivo
##tarse
abiertos
anuncios
cerdo
darse
descansar
desean
despliegue
envia
evangelio
fallo
ganancias
generar
gratuita
haberte
incidente
ja
jugador
localidad
moda
muro
musical
obvio
orador
pasion
pendientes
pollo
relacionada
religiosos
rescate
ruedas
separado
sobrevivir
transparente
trataba
##ctivas
##cy
##dico
##don
##dt
##ferencia
##gido
##ificada
##inos
##ndido
##telo
##uso
administrativa
aerea
afectado
aumenta
autentico
aventura
bce
caido
concurso
conocia
continue
cuchillo
deposito
directivas
echo
eddie
electronicos
establecida
explico
flota
gobernanza
grados
gustaba
intercambios
labios
leccion
limitar
malasia
mantenerse
park
preguntaba
prisioneros
pronostico
querian
reunir
riqueza
sexagesimo
sienta
sombrero
utilice
veinte
viajar
visitantes
vital
##cen
##eria
##ight
##lmente
##monos
##nar
##nio
##qui
##rieron
##taciones
##tador
##ted
##tero
##tin
##torios
##uto
##vin
68
acp
andy
animo
aplicado
aquello
artes
basados
by
capa
comentario
compras
confia
conocerte
conservar
considere
constitutivo
correctamente
date
decadas
define
definitiva
dejen
detente
disciplina
diversion
dolar
enormes
estres
etiqueta
facultad
fiebre
fraude
habilidades
jake
manifestaciones
nariz
penas
poca
profesores
puse
reconciliacion
redaccion
respaldo
rosa
simon
sufrir
titulos
truco
##30
##anos
##ben
##ctivo
##dme
##fer
##ficado
##grafica
##izos
##jon
##mision
##pada
##pi
##ray
##rca
##rey
##tch
##torias
08
adoptada
agresion
bala
bloqueo
chocolate
compre
comprometido
concretamente
contado
convenios
cumplido
damos
denuncia
dominio
escritura
esquina
fr
fresco
gases
hubieras
jerusalen
llamame
lujo
mediterraneo
navegacion
peticiones
pidiendo
policial
posesion
prefiero
prestado
presupuestario
presupuestos
recepcion
restos
ruego
sustancia
taller
##grafico
##hen
##ija
##ix
##nga
##one
##rito
##rro
##triz
71
acido
acogida
agujero
aplicarse
asesinatos
barra
bienvenidos
bol
bush
cartera
codigos
conductor
creeme
creerlo
criticas
dimensiones
ensenar
escuchando
evaluaciones
fracaso
justa
leido
lenguaje
lisa
llamando
mentiras
meridional
mr
negativa
nieve
obama
piedras
podeis
preocupe
productividad
reputacion
salarios
suave
sucio
sugiere
texas
transacciones
##cial
##dada
##eis
##itaria
##lido
##neo
##ores
##pen
##ple
##rido
##ster
##tividad
##vertido
##yn
abandono
afectadas
africanos
agencias
amas
ancianos
aplicando
aprobar
brian
comunicado
condenado
crecer
deba
densidad
expansion
filipinas
fisicas
frutos
honduras
incendio
incrementar
insulina
legislativas
lento
lituania
llevamos
maestros
modificada
movilidad
olor
paciencia
participan
perdone
plenaria
preocupada
previo
propietario
recomendo
regresa
retraso
reyes
senalado
solicitantes
solucionar
soportar
suplemento
suponia
twitter
urgencia
uruguay
##deria
##eccion
##enta
##esa
##gacion
##gida
##lina
##mann
##mbre
##pes
##sto
##und
86
actuando
apelacion
arquitectura
britanico
buscan
carbon
cerrada
coherente
contienen
cumplan
decirselo
dejeme
departamentos
espada
explosivos
favorito
firmar
frutas
grandioso
granja
hablaba
heridos
iniciado
integrada
lenguas
levanta
mandatos
movilizacion
myanmar
net
nombramiento
orgulloso
parametros
pecados
presentaron
producen
quimicas
re
regrese
religiosas
retirada
reto
simbolo
singapur
tardes
temor
tension
terrorista
tomas
vengan
##10
##bado
##ction
##dre
##dria
##egacion
##etas
##gra
##grado
##gua
##ii
##lie
##ling
##oo
##ses
##taba
##taron
##tera
##timiento
acabas
ajustes
alemana
asegurarse
carreteras
consumidor
coordinador
cuota
desechos
diagnostico
dieta
dioses
encantado
escrita
extrema
fantasma
favorable
garantiza
google
habitat
industrias
infraestructuras
limpiar
manifestacion
marino
molesto
multilateral
oea
oigan
orientaciones
paro
positivos
produjo
programacion
punta
reducido
secuestro
sienten
tabla
tejido
trabajaba
tuviste
usan
vueltas
##ane
##cacion
##dientes
##ecia
##ecio
##eso
##ifica
##jero
##nidad
##ogo
##stica
##tria
66
acepta
afirmo
amaba
aprendido
armada
automaticamente
bote
calmate
campeon
coherencia
consecucion
contabilidad
dedos
deficiencias
destacar
espanola
espejo
estupida
formuladas
geografica
imagino
indole
ingenieria
liga
logica
metido
miro
moderna
moviles
oradores
paisaje
papi
parecio
pedazo
posiblemente
previamente
quimica
quince
renovacion
roca
salario
salgan
servidor
soporte
talento
utiles
veanse
vieron
vivimos
##ard
##ciendo
##dente
##duras
##guen
##iones
##izan
##mico
##quiera
##ues
abandonado
absoluta
actua
aires
altamente
americana
anadido
apuesta
belarus
compuesto
conexas
critico
deliberaciones
desgracia
desierto
determinada
dira
disparar
elevada
etapas
extremadamente
firmemente
fumar
gane
golpes
guarda
hechas
humor
ibamos
imaginar
incorporar
kelly
kenya
maiz
mantenga
montenegro
mover
observando
pierde
presidentes
resulto
santiago
sombra
supe
ted
tormenta
unesco
vean
vivido
vuestros
##arias
##cino
##cional
##cs
##duce
##gon
##grante
##ich
##ilidad
##kin
##lida
##lismo
##mbra
##mentacion
##minado
##nico
##ntos
##oe
##ory
##pia
##quero
##rida
##stra
##tidos
1983
aceptado
acnur
agradecimiento
ali
aprobadas
apropiada
bangladesh
blancos
caminando
celebradas
cereales
cinta
cohesion
conocidos
consigo
cristal
dave
demandas
deteccion
eee
electrica
enfrenta
etiopia
examinado
fijacion
frecuentemente
futura
herencia
intentos
invitacion
juega
kevin
mami
menu
multilaterales
normales
parada
pedirle
privacidad
referente
registrado
relatora
robado
scott
sustituye
telefonos
territorial
tumba
veia
vengo
votado
##bras
##cada
##chi
##cita
##dece
##ean
##ell
##grama
##ien
##ona
##queros
##rando
##une
69
82
alimento
anti
busco
cajas
carter
compensacion
conceptos
concierto
daba
declara
describe
eeuu
entregar
envie
estrategica
evidentemente
externa
fila
ganador
hermanas
interaccion
largas
larry
macedonia
mejoramiento
municiones
nosotras
noveno
obtuvo
olvidalo
operacionales
organizo
personalidad
practico
precisa
primas
pusieron
reconociendo
reestructuracion
rusa
sacrificio
salas
seguia
serlo
sexy
solas
sufrimiento
supra
tomen
torre
tratan
trono
verificar
vigilar
villa
vol
volviendo
##3n
##brio
##ducido
##ecta
##ifico
##nado
##uma
1984
74
83
an
arabia
argelia
autos
balance
bandera
bebida
biologica
clinicos
conscientes
creencias
demonio
dependen
despacho
desplazados
digame
divorcio
educativo
encanto
enfoques
enseno
fijado
flexibilidad
globalizacion
helado
impunidad
indispensable
integrar
intolerancia
invertir
miguel
mina
muertes
necesite
obtenidos
oxigeno
renunciar
reproduccion
rusos
satelite
saudita
signo
situada
tomamos
tomara
trastornos
vimos
##bios
##bon
##fique
##gadas
##lante
##menta
##mp
##nn
##ox
##pan
##rarse
##ritas
##rla
##samente
##trato
73
79
84
abusos
acordado
atmosfera
bilaterales
bobby
camisa
carreras
cooperar
copias
creada
denominado
deportes
depresion
dificultad
disenado
du
erradicacion
exigir
fotografias
funcionan
haberme
hijas
historica
honesto
kim
king
licencias
mantenido
marcado
medioambiental
mintiendo
monte
monto
mortalidad
motores
mueve
octavo
ocupada
oit
olvides
orgullo
personaje
postura
promesas
pudieron
refugio
respondio
saca
salvaje
sepas
series
sinceramente
titulares
tragedia
validez
valiente
xenofobia
##11
##ace
##ap
##ciar
##etos
##grafo
##logo
##mano
##metro
##mine
##ota
##per
##sando
##tamos
##trico
##uido
##ulada
abiertas
activistas
actor
aldea
alivio
anexos
aparicion
armario
arresto
billetes
bolas
borde
bruto
burundi
chicago
comenzado
contento
costumbre
cura
destinada
elaborado
encaminadas
encontraras
enferma
enfrentar
escritorio
establecimientos
excelencia
filosofia
fundamentalmente
guardar
guerras
habrian
importes
intergubernamentales
intervenir
kuwait
lanzar
magnitud
mesas
misericordia
misterio
necesariamente
noble
observador
oms
per
perdiendo
pon
precioso
presentarse
recurrir
relajate
respirar
reunirse
sacerdote
secundarios
solicite
sri
telecomunicaciones
tomare
veran
walter
##44
##az
##cera
##ezca
##gh
##gie
##iana
##illas
##itarios
##llos
##oro
##ort
##rino
##teria
##uacion
##uelo
##ui
##vacion
##ves
##zi
acusaciones
adquirir
afectar
alan
aplicaran
carro
city
ciudadania
claras
coincidencia
coleccion
crucial
culturas
definitivo
dejas
descubierto
destaco
elegidos
escape
exista
expectativas
facilidad
forestal
funeral
globales
guardias
huir
importar
incluya
jodido
jones
lisboa
masas
monetario
municipio
negociar
oficiosas
oiga
plastico
premios
prohibido
proponer
queso
raices
salen
santuario
vigentes
vii
##are
##cie
##dito
##ier
##ive
##lm
##luido
##minacion
##puesta
##sia
##tein
##usto
##vando
##zando
76
advertencia
alquilar
amante
andar
angela
antiguas
antonio
aparatos
aplican
aprobados
autonomia
bola
comprado
conversion
coordinar
cuadros
directora
disponer
doctora
emociones
empece
emperador
empleos
encuentras
escasez
escuchen
exencion
explosion
formal
fortuna
guapa
huele
jerry
mantienen
nepal
obligados
ocurrir
pasaporte
pertenecen
pura
puro
rango
refieres
saque
sorprendente
sumamente
uganda
vaso
ventanas
voluntario
##20
##25
##40
##ende
##gre
##hu
##idez
##itacion
##itor
##lista
##llon
##mental
##mita
##partida
##q
##tear
##ulos
1978
81
acaban
aparecer
asistente
asociado
aumentando
ayudado
ayudando
basandose
bestia
cabezas
cadaver
captura
cia
civilizacion
clausula
confirmar
convencido
desee
direcciones
dirigir
duradera
encontraste
exigen
ey
fao
fijo
habiamos
hospitales
huevo
humo
informara
instruccion
interinstitucional
inversores
iria
kyle
lesiones
llamados
llegando
migracion
modulo
mostro
muevete
murieron
notable
ocupados
ocurra
olvida
ordeno
otono
oyes
parejas
participado
pasaron
pesado
pib
piense
pienses
podias
preparativos
press
proporcionan
propuso
pyme
rapidez
salsa
seamos
sentimos
smith
socialista
sometidos
sostenibilidad
sucedido
sucediendo
suministros
taylor
tejidos
vidrio
vigente
vinculo
voces
wow
##17
##bert
##cados
##cc
##cencia
##ciera
##ece
##gico
##iar
##iencia
##licita
##minada
##mio
##puesto
##taste
##tira
##unado
##uya
##well
##wood
1979
700
academia
amar
annie
aparecen
apendice
atractivo
azerbaiyan
bastardo
cd
cesar
convencionales
correcciones
creados
cuidadosamente
cultivos
dinamica
discipulos
ejercicios
encargada
escaleras
estonia
falso
franceses
harias
heridas
humanitarios
imponer
intentarlo
irak
isbn
jeff
jornada
lentamente
mata
monetaria
multitud
musulmanes
national
negativos
pacifica
pastel
pedimos
personajes
pondre
prestando
provocar
pudiste
recibi
retirar
secciones
sexta
street
talleres
tengamos
terrestres
tirar
toman
tono
tubo
utilizada
venia
verdes
vivia
volvi
vuestras
##arme
##art
##bida
##blemente
##cte
##ctores
##duzca
##ett
##hy
##jada
##ku
##mada
##primido
##taria
##ters
##uela
##uri
##ute
##uyo
##zadas
67
acabamos
actualizacion
acuerdas
admitir
alarma
alfa
am
apartamentos
atacar
bolsillo
buque
cambiando
cincuenta
cometidos
conceder
concentraciones
corresponda
creyentes
criatura
demasiada
determina
distinta
dudo
efectuar
encontraremos
estaciones
estrechamente
estudiando
examinando
existir
gigante
guste
horario
importaria
inmunidad
italiana
jamaica
jason
kate
largate
liberalizacion
libremente
man
matematicas
necesitara
ofrecemos
olvido
otan
pagado
parrs
pc
practicar
reglamentacion
renovables
rev
rwanda
sabor
seleccionar
sensible
solicita
sonrisa
subraya
sugirio
tabaco
testamento
toques
trabajador
ultraterrestre
une
##arl
##cker
##deros
##eciendo
##enes
##ferido
##into
##lis
##logicas
##mba
##med
##mete
##mitido
##mond
##nny
##tiera
##tive
##tral
##umo
##uncion
##use
##uth
##vir
##ye
##zados
ad
administrador
alcanzo
aprecio
autorizados
basadas
bebidas
busque
cap
casarse
chinos
ciego
claire
colaborar
comunista
criminales
cumplen
daria
debida
declarar
deterioro
dijera
dulces
emily
empezado
entrado
especialistas
estimaciones
exceso
fases
fijar
formado
fortaleza
guion
hacian
interesantes
jackson
jordania
line
liquido
literatura
lucas
malditos
marinos
matarte
mediados
medicion
metodologia
observado
oscar
pelota
pete
pistas
podre
poquito
precision
preguntarle
presenten
presidencial
primo
protocolos
provincias
queridos
reembolso
reflexion
rose
saldra
sencilla
sentirse
sopa
sorprende
sotano
sovietica
time
tolerancia
unida
usos
##bina
##brar
##ezcan
##ges
##ght
##istico
##pacion
##plazar
##prende
##puso
##recia
##rna
##tuvieron
##tz
##ulgar
##ulpo
1973
actuaciones
adelanto
adquisiciones
alentar
alimenticios
arco
armonia
balas
bateria
be
camioneta
campesinos
canales
complace
convenciones
creando
dejaron
depositos
emergencias
encantador
encuentren
espaciales
existencias
felicitaciones
genera
habran
iglesias
inicialmente
instante
invasion
iras
izquierdo
julia
levantate
milagro
muera
nombrado
paredes
particulas
penales
pertenecientes
pnuma
pongo
prepara
publicar
quieran
realizando
saldo
seco
semejante
senador
sientese
solicitado
sufren
tunez
urbano
verse
votantes
##cede
##cender
##chado
##die
##duciendo
##ecer
##fusion
##iese
##ificados
##irse
##ius
##izando
##lero
##net
##pira
##rge
##rista
##stico
##trica
##ucion
##udar
##uida
##versa
##zamos
1000
109
aclarar
acusados
adquirido
adversos
angola
arreglos
atlantico
bolso
britanica
coalicion
comido
comiendo
comprendo
constituir
contribuido
convencer
cuerda
curioso
darles
descarga
durmiendo
encontrarlo
escolares
estructural
expedicion
feria
formulada
from
fruto
gasolina
giro
golfo
huespedes
imposicion
individuo
inutil
johnson
lanka
lanzado
letonia
logistica
maritimo
ministerial
mostrado
objeciones
onudi
oportuno
panel
patrones
pongan
precedentes
presos
prostitucion
proximas
reafirma
reconocio
registrada
rights
sabeis
sabiduria
sacerdotes
sonar
trinidad
vinieron
##60
##ack
##bc
##cciones
##cidad
##cro
##culares
##ens
##gieron
##gno
##inados
##ividad
##matica
##niendo
##odo
##para
##piro
##siones
##uca
##vieron
##vision
120
1967
abastecimiento
aceptable
albania
amigas
apliquen
asustado
avanzada
ayudan
boletin
brown
camboya
chavez
cm
concedido
conduce
consideramos
contribuye
crema
cristiana
cumpla
designado
digale
directores
dirigidas
dragon
emocionante
espiritus
estimado
estimular
eva
expresado
famosa
funcionando
garganta
hitler
hmm
homologacion
huelga
idiotas
incidentes
josh
lei
mediano
menciono
ministerios
mono
mortal
nam
novela
nubes
nucleo
paraiso
platos
proteinas
protesta
queja
ratas
reunio
rumbo
sanidad
sensibilizacion
sheriff
sindicatos
suceder
that
tim
trabajas
trabaje
transmitir
verle
##adores
##america
##chen
##ejo
##ern
##erson
##fi
##ficar
##gmentos
##lizado
##lus
##min
##ndas
##ndia
##nera
##ogica
##porta
##pto
##resa
##riales
##siva
##tidas
##timos
##ture
##uelve
##uia
##unto
##urado
adecuadamente
amplias
ayudarnos
barato
casco
cinturon
coma
comparte
compruebe
concreta
confirmado
convencional
correccion
dependiendo
desaparecer
desarrolla
descargar
descrito
diabetes
divina
domicilio
empezamos
empresarios
examinara
fija
gordo
house
implementacion
internas
iva
jenny
ladron
lagrimas
lea
leyendo
lio
louis
luis
mantuvo
mataron
mejorado
mentes
miel
minimas
mirate
negativas
pajaro
patente
percepcion
potenciales
preocuparse
propietarios
ra
raras
realice
reduce
renuncia
serias
sospechosos
sostenibles
sostiene
terror
trabajamos
tratamientos
utilidad
vende
vertical
##35
##58
##bilizar
##bria
##del
##dh
##ditacion
##egado
##ficacion
##gel
##geno
##gro
##listas
##llar
##lt
##minar
##rce
##rones
##titud
##tus
##ugh
##vada
##xido
abra
adicion
adoptara
ahorro
aportacion
argumentos
aviacion
cantante
caras
caridad
catolica
comenzaron
compro
contenida
conviccion
cruzar
decirles
demora
domestica
dormido
email
engano
entren
entrenador
extranjera
falsa
felicidades
ferrocarril
fiscalizacion
flor
gatos
golf
grafico
humanitarias
incumplimiento
infraccion
jefa
lagos
limita
mantengan
mauricio
medir
miami
mixto
morgan
obstaculo
ocultar
pagan
pasaba
pasamos
peores
piano
preparatoria
previas
profesion
quieto
raton
respectivas
respiracion
revisado
sagrado
salimos
sometido
sufre
terminal
tomadas
totales
unicos
us
valoracion
viniste
voluntaria
vulnerabilidad
with
zelandia
##ae
##aran
##ciado
##cu
##ducida
##enos
##ew
##ficiencia
##gamos
##gente
##iada
##ish
##lizacion
##logicos
##ote
##poner
##portar
##rp
##ski
##tle
##ule
130
abu
ambulancia
ancho
asombroso
automoviles
bahia
bandas
beijing
big
bravo
buscamos
cambie
canon
capitales
censo
colectivo
comodo
comparar
concluido
confusion
crecio
darfur
delegados
devolucion
distincion
divulgacion
dolores
dominicana
emocional
energias
equivocada
esperanzas
examina
experimento
expuesto
externo
femenino
fisicos
fmi
fueras
funcione
fusion
golpeo
higado
hollywood
homicidio
humedad
impulsar
incidencia
inflacion
iniciales
inocentes
internacionalmente
menciona
muebles
nathan
parado
participa
participen
parto
pendiente
perdoname
pez
pizza
pones
preguntando
profundidad
rastro
recompensa
recopilacion
registrados
reir
restriccion
solicito
sustitucion
tribu
vais
viabilidad
viii
vuelvan
##12
##50
##ches
##cia3n
##cuacion
##dose
##ega
##gimiento
##icias
##ificadas
##jando
##lice
##line
##maticos
##mentos
##mida
##mino
##misible
##ndes
##ologia
##oran
##ov
##pio
##riado
##tificar
##tiles
##ting
##tto
##zacion
##°c
105
1981
absorcion
alejate
almacen
aportan
aportar
aproximacion
billete
bis
capitulos
casada
cheque
clark
cocinar
collar
colonia
comprimidos
concluye
concluyo
consegui
contemplados
cote
creciendo
credibilidad
curiosidad
decente
decimo
descubrio
elizabeth
emocion
encantada
envase
escritor
esperado
estabilizacion
extranos
federales
franco
frecuente
garcia
grace
grano
griego
hables
hazme
hierba
imaginacion
indicaciones
intensidad
islandia
krishna
lecciones
ligeras
misiles
obligatoria
occidente
ocuparse
participaron
patentes
poderosa
prohibe
prosperidad
quedas
quejas
receta
rechazar
sabian
sabra
sales
salvado
secreta
sensibilidad
sentarse
susan
tanzania
temprana
urbana
verlos
##cogido
##cultura
##diera
##este
##graficos
##inada
##matico
##oracion
##pino
##rantes
##reta
##ridas
##sados
##sk
##tante
##tenga
##tente
##teral
##ther
##trando
##ucho
##unada
##win
##ys
accesorios
acompanado
adulto
algodon
anfitrion
at
avanzado
barbara
celda
citado
citas
coge
compatible
complementaria
comunicar
concepcion
conjuntos
continuara
controla
corresponden
crueles
dejamos
dejenme
demandante
desarrollando
diaria
diera
digan
donna
duerme
ecosistemas
elegante
enojado
estarian
fax
fijados
firmo
fuga
funciono
galeria
galletas
grabacion
hablaremos
invernadero
lamentablemente
legislativa
liberia
llamamos
llevarse
llevarte
lobo
lucy
magnifico
mail
mapas
marie
mataste
mentiroso
mutuo
naval
oigo
once
papas
patio
pesadilla
planteamiento
playas
proporcionado
proveedor
quereis
recibiendo
recoge
recorrido
representar
rueda
salvacion
sello
separados
servido
sirven
sofa
tic
tomaron
vendedor
##and
##burg
##dal
##din
##ectar
##ema
##erado
##ficantes
##gular
##hip
##itud
##itz
##lay
##let
##lico
##meter
##ndiendo
##ntar
##plico
##rnandez
##ruye
##seguir
##sistencia
##stan
##tizado
##uan
##ugo
##undo
##vocar
1977
ajustar
alas
ascenso
bicicleta
causado
cientificas
conseguiste
continuidad
cosecha
crean
cristiano
desconocido
detectar
deudas
dispuesta
doctrina
ducha
embajada
enfermos
escribi
esposas
estupefacientes
eterna
etica
etiquetado
etnico
exclusiva
fabricantes
fiel
fiestas
forestales
formulo
fruta
fundamento
garantice
hipotesis
insulares
japones
judio
jurisprudencia
juzgar
law
levantar
logre
mac
magistrados
mantequilla
matricula
matt
mencionada
minerales
municipal
muriendo
ofrecido
oliver
participo
patria
patrocinadores
pico
pisos
ponerme
prestan
presupuestaria
prometido
regalos
report
resultar
revolucionario
sali
secuencia
senado
senegal
tecnologico
unfpa
versiones
vigesimo
vuelvas
##51
##ala
##arlo
##ary
##brado
##cente
##enda
##enden
##fera
##gencia
##gicas
##if
##ige
##lificacion
##loque
##mela
##oma
##ped
##port
##raccion
##star
##sten
##taje
##tara
##tendia
##trados
##ulsado
##unt
##viendo
##vite
##we
##zz
acelerar
acondicionado
actas
actualizado
adoptaran
alice
americas
apreciar
arrestado
asegura
atraer
atrapar
ayudarlo
bissau
caracteristica
cargar
casualidad
chaqueta
chuck
cometer
conexiones
confirmacion
conozca
considerables
continuan
corredor
decimos
decirnos
definido
denominacion
destacado
diplomatica
dirigidos
disfruta
eje
emitido
empezaron
enfrentan
episodio
equidad
escritos
explicaciones
explorar
expresiones
felicitar
fiscalia
flexible
francos
gabinete
gratuito
guapo
huh
humanas
ingredientes
intenciones
involucrado
leste
ligeramente
llorando
manifestantes
matarme
mediodia
mirad
municipales
naves
originalmente
parezca
peligros
permanece
permisos
plato
pma
poeta
pongase
preparada
presiones
presupuestarios
prohibir
propositos
protestas
quita
recibira
reproductiva
restitucion
sano
sigamos
sincero
sucia
sugerencias
sujetas
tecnicamente
tios
trimestre
tunel
united
vaca
vecino
vial
von
whisky
xxi
yemen
°c
##52
##aban
##accion
##all
##bada
##bor
##dian
##dle
##elos
##har
##ites
##kins
##landes
##leta
##licito
##lidas
##lique
##lto
##mistas
##mocion
##mpson
##ojo
##ont
##op
##ore
##ot
##rador
##rdas
##regional
##sula
##table
##utica
##utico
##vel
##vier
##xo
##yan
1975
1982
abrazo
abrigo
aburrido
acordo
aeropuertos
agrado
amarillo
amen
anunciar
apariencia
arthur
automovil
autora
azules
boston
brindar
campeonato
caro
chad
circuito
cocaina
comando
comidas
concierne
considerara
convencidos
copenhague
cronica
cubierto
cubre
darnos
debiles
debilidad
dedicada
deme
desafortunadamente
deseas
designacion
diamantes
digno
disparos
dumping
echa
edward
encontrarse
entrevistas
entusiasmo
escuchas
eslovaquia
estemos
experimentar
exportadores
extranjeras
femenina
fi
florida
gustas
hablemos
inaceptable
inciso
inclusive
interesada
interfaz
introducido
ivoire
km2
ligero
limitacion
lord
lucia
mascara
matando
mejorando
mueren
now
oidos
operacional
orgullosa
oso
pa
pastor
pelear
pene
practicos
preguntado
preliminar
prepare
realizarse
recordo
referentes
respira
rodillas
rompio
saltar
salvaguardias
schengen
seguiran
seremos
seriamente
sirvanse
sistematica
suicidio
supervisar
supiera
sustantivo
tecnologica
telefonica
times
tipico
tripulacion
unirse
university
utilizo
veneno
visito
volveria
whoa
wilson
##49
##62
##63
##aro
##bla
##canes
##ceda
##cher
##dam
##didos
##ec
##elas
##ess
##gresar
##gresiva
##iales
##ini
##iv
##jen
##king
##luye
##mones
##ord
##pera
##pina
##psia
##sio
##sivos
##sor
##viente
160
180
actriz
afrontar
agradecer
anade
apelaciones
apesta
autentica
automatica
barreras
calcular
camerun
catalogo
cima
colaboradores
comprobacion
compuesta
consulte
contener
contenta
controlado
creador
describir
diputado
discapacitados
disponen
divino
dormitorio
encantadora
encontraba
escoger
expediente
explotar
expresamente
extradicion
faltan
foros
gravemente
guitarra
infecciones
joey
jubilacion
justificar
kyoto
lady
lanzo
licitacion
maritima
marketing
meter
moverse
muchisimo
mutua
nerviosa
nutricion
obliga
ofrecio
oiea
okay
orina
pasillo
peligrosa
periodicamente
piedad
pondra
pre
primordial
prisionero
provocado
remuneracion
rendicion
roger
sara
simples
stan
terry
viejas
vietnam
visible
zambia
zimbabwe
##48
##aca
##ach
##acto
##ali
##almente
##bby
##cedente
##centes
##ctar
##dez
##dicacion
##eado
##erable
##fano
##feccion
##feros
##gmento
##icio
##igan
##ill
##ilo
##landia
##lisis
##lles
##mentar
##ndome
##ning
##nlo
##ock
##quia
##rante
##rmo
##roso
##rquia
##siga
##tamiento
##tea
##tela
##tillo
##uar
##uc
##uria
##zy
1960
acontecimiento
administrar
anne
apoyado
apuestas
asalto
au
biodiversidad
blancas
bolsas
cadaveres
capita
cardiaco
cerro
chef
co2
confirma
consolidar
contemplado
corporal
costumbres
cruce
deberes
dejarme
derrota
deseamos
desigualdad
desplazamiento
destruido
detuvo
diana
directos
eligio
entran
entregado
escalera
estuvimos
excepciones
explotaciones
fantasia
favorita
finalizar
franja
guerrero
historial
human
imagine
informatica
interino
interlocutores
iraqui
islam
iso
jacob
juvenil
lanza
latinos
lectores
legitima
life
luchando
manifiesta
matarlo
medianoche
muevanse
ocupar
organica
pags
planeado
pop
poseen
presto
probado
quitar
racional
realizara
regularmente
reintegracion
religiones
renal
resurreccion
reune
reunido
ron
sa
saludable
semestre
sucesivo
sueldo
sujeta
tira
toco
urbanas
valioso
vegas
vendido
verdaderos
viable
vinculante
visual
volando
vuelven
vuelves
zorra
##01
##33
##53
##54
##alo
##culta
##dados
##entado
##entos
##erada
##estar
##hin
##iado
##illos
##ins
##itiva
##lace
##logos
##meterse
##nan
##pica
##pol
##ponia
##pt
##rdar
##ries
##rlos
##sada
##uada
##ulados
##up
##uren
##wen
##zoso
1970
1971
212
acabe
actualizar
adquirida
afirmar
afortunado
agotado
aliviar
alrededores
amsterdam
ascensor
asegurarme
becas
brecha
britanicos
cabron
carl
cerebral
cesacion
circulos
complejos
confirmo
creas
crece
criaturas
criticos
cruel
dadas
dean
dejarte
demuestran
deriva
descubrimiento
deseen
dibujo
difundir
discos
echado
ej
escribiendo
especificaciones
estocolmo
estrecho
examine
existia
fred
gerente
ghana
go
gorda
gradualmente
hablare
horizontal
howard
influir
jugo
kazajstan
kilos
legalmente
madagascar
maestra
maquinaria
modernos
municipios
mutuamente
na
nace
news
norteamericano
objecion
occidentales
ocde
ordenar
organico
originales
pagara
paquetes
pastillas
patrick
permitanme
pm
preservar
preste
qatar
quedamos
ratificado
rebeldes
redonda
reitera
repetir
repito
reporte
ross
ru
sacado
sed
servira
stephen
sufriendo
tensiones
test
tonta
turco
turistas
vacantes
vestidos
victor
viet
voluntarias
##14
##ab
##alina
##ast
##biliario
##ciende
##cis
##col
##decer
##deo
##entas
##ervo
##ficiente
##gne
##iano
##ibanes
##igh
##iosa
##llado
##lora
##mad
##nacion
##orada
##pero
##porto
##rara
##ribuye
##ricos
##rimiento
##ring
##rst
##tic
##tine
##tipos
##tivar
##tores
##uado
##uga
##uge
##vena
##viera
##vivientes
##xi
##zaba
##ze
1974
abrio
absurdo
actualizada
acusacion
adorable
aduana
aereas
all
alternativo
amado
ana
andre
asesinos
autorizar
ayudante
azar
beneficiarse
bin
bromas
cansada
cercana
claros
compartimos
concede
conjuntas
constitucionales
continuamente
corona
cuenca
cuentos
cumbres
deprisa
diles
dimelo
disculpen
editor
electrico
empiece
enfadado
entrando
esencia
establezca
estimacion
estrategicos
extraccion
fijan
grasa
gripe
gt
gubernamental
hank
indios
indique
insolvencia
instalar
intentas
invisible
japoneses
jo
ladrones
lavado
legislaciones
leyenda
liberal
llamaron
llamaste
lleguen
logrados
manteniendo
matare
materna
metales
niega
obreros
ocupo
pabellon
pedidos
piden
presupuestarias
provisionales
publicara
quitate
radiacion
revela
risas
sahara
seguida
solida
suceda
supresion
sustancial
terremoto
utilizadas
vecindario
vendria
vinculados
vinos
west
##18
##57
##bel
##cionales
##cn
##ctivos
##dentes
##dlo
##ecieron
##ek
##ella
##eses
##eza
##ficados
##ficante
##garse
##gle
##iere
##igo
##iz
##izas
##judicial
##leo
##luidos
##mismo
##ndi
##ono
##orando
##ork
##plazamiento
##plicacion
##quita
##renda
##rm
##rton
##sible
##tamente
##tarte
##ualmente
##uardo
##udir
##uelta
##uestre
##ules
##vido
##wan
##xa
1972
administraciones
admision
alexander
aliados
aman
andando
apellido
apoyamos
aprendi
asegure
asegurese
asignado
asustada
atrapado
avanzando
black
cables
camiones
caos
cat
certeza
cigarrillo
claves
consideraciones
considerada
consideren
convirtiendo
cuarenta
cuero
daran
decirtelo
degradantes
delicioso
descuento
deseado
dibujos
dirigirse
elena
emprender
encontrare
esperare
estandares
estatua
estrictamente
estuvieran
etiquetas
excelentes
fallos
gordon
grito
hayamos
hepatitis
hortalizas
incentivos
inhumanos
inspiracion
insto
intenso
interrumpir
masiva
mentir
mitchell
modificados
muevas
odia
orilla
panico
pare
pasaria
perdimos
permitiria
phil
portal
potable
pozo
prefiere
presten
procedente
queriamos
reconocidas
record
refuerzo
registrar
religioso
remedio
retencion
rumores
saint
sanitaria
satisfecho
sentidos
sistematicamente
sub
sugiero
supo
taza
tendrian
terraza
terrestre
trasera
uniformes
usualmente
utilicen
variable
viniendo
violentos
vives
vivio
volvemos
##13
##23
##32
##59
##80
##ak
##bes
##blado
##bridge
##bulo
##cidos
##cil
##demos
##dremos
##ducidas
##eada
##economica
##esta
##grada
##ics
##illado
##itarias
##lador
##lificado
##mana
##mbrar
##mitio
##mus
##ndan
##nge
##non
##pido
##piste
##raron
##rencia
##ribuyo
##rner
##tano
##tha
##timo
##tinos
##tty
##ultura
##ust
##utacion
##venta
##vida
##vor
1976
350
900
acepte
adolescente
adversas
aguja
aportaciones
arbitraje
asientos
asignados
ataco
atun
avenida
barbados
bello
cadenas
calcula
canto
causo
civilizaciones
cobarde
compensar
concedida
conde
convergencia
cooperativas
corr
cria
demostracion
desempena
despertar
dispararon
distribuir
duque
educativas
emma
escandalo
espirituales
estarias
evidencias
excusa
externas
facilitacion
formulado
granada
hector
helicoptero
indicacion
inevitable
infracciones
inspecciones
invento
jesse
jordan
juzgado
laura
limitados
luke
mali
miseria
modernizacion
montaje
nl
one
orbita
pajaros
parques
permitame
precauciones
preparatorio
procesamiento
quedare
reafirmando
realista
recibimos
referia
reflejan
retirado
rocas
salieron
sanitarios
sentencias
sepan
sientas
solidos
subrayar
suprema
tele
tomate
tradiciones
traigo
valido
variables
variedades
vela
vincent
vitales
yugoslava
##28
##90
##aciones
##ans
##barque
##ciosa
##ctas
##ding
##dujeron
##fra
##ieran
##inan
##itores
##lizar
##nadas
##ntin
##ocion
##ong
##pados
##patia
##pc
##rick
##ru
##rza
##tales
##tencia
##tizo
##tta
##tuo
##umido
##unda
##urio
##viar
##ware
##yer
140
1969
acumulacion
albert
alcanza
aldeas
alegre
antelacion
apropiados
armamentos
asqueroso
automatico
burkina
calculos
canarias
cargas
casarme
celebrando
colina
colocar
combustibles
compasion
competitiva
complementarias
consejero
contaminantes
contando
contratar
contribuyen
controversias
costas
cuidados
decisivo
describen
desempenan
desnudo
digitales
dirigio
disculpame
dvd
electricos
empresariales
encontremos
entere
epidemia
erradicar
escapo
escasa
esperas
golpeado
hallar
helen
hispanos
horno
hueso
id
impide
impone
incluyo
inferiores
inglesa
integrados
intentaba
inventario
lamentable
legado
lesion
leve
lily
llevarlo
mantendra
manuel
marte
moises
mongolia
movilizar
multa
mundializacion
nacer
nelson
nominal
normativas
notar
nube
oceanos
oiste
onda
opina
oportuna
pague
parcialmente
parezco
patatas
patrulla
pediste
perdieron
perdiste
persecucion
podiamos
poker
policiales
pongas
porno
preparo
prometio
prorroga
recibida
reflejo
restantes
retirarse
romano
sabiamos
salgo
salve
seca
seguidores
sencillamente
sintio
solicitante
sorprendido
suite
tetas
torres
ulterior
vengas
veterinario
white
##34
##41
##americana
##cendio
##chos
##ciente
##damos
##dd
##dujo
##enia
##erry
##esperado
##gatorio
##gerir
##giste
##guardia
##hos
##inario
##istica
##lato
##leros
##mando
##mista
##mitiendo
##mm
##ndote
##oy
##porte
##pso
##rban
##rcio
##rece
##right
##rl
##rman
##rrea
##tendra
##tial
##tima
##tipo
##udas
##urada
110
academico
activista
aduanas
afirmacion
agradeceria
ahorrar
alfabetizacion
amanda
antidumping
aplique
aprobara
autobuses
autonomos
bancaria
barry
calefaccion
camas
camiseta
catolicos
causados
clausura
cobrar
cogido
cole
comisionada
compleja
comprometidos
compuestos
computadoras
concienciacion
conduccion
conectado
construyendo
contables
contempladas
convierten
cooper
cuantia
definiciones
degradacion
desagradable
descenso
despierto
destinos
devolver
disculpeme
disminuir
eche
educativos
eficazmente
ejecutivos
elevar
empeno
encarga
enfermeria
ensena
enviados
estatutos
excepcional
excesivo
exclusivo
experimentado
extiende
faso
fibras
financiado
formando
gary
gestionar
green
heroina
home
inc
indicador
indices
insuficiente
intensificar
iris
liquidacion
llegas
llegaste
ltd
maggie
marcus
minoria
mostrando
mueva
naranja
nego
neto
oficio
panorama
pasta
pdf
pescadores
pesquera
ponerte
positivas
preguntale
propaganda
recibo
reclutamiento
reflexionar
relevantes
requerido
rick
satanas
sensibles
sentada
serios
serpiente
significativamente
siguieron
spa
subregionales
tenerlo
tocado
tokio
tomada
tuvieran
usada
usados
vacia
vestir
volante
volvamos
volvieron
xx
young
##15
##16
##39
##ates
##beria
##bicion
##bin
##blas
##bol
##cien
##cioso
##cista
##cistas
##citado
##citos
##cre
##dental
##eco
##eda
##ficial
##fina
##fono
##fred
##gil
##gimos
##icios
##iedad
##igas
##ilar
##ilde
##inando
##ith
##kov
##lamacion
##lix
##lor
##menten
##mitacion
##mt
##nc
##ndole
##nel
##nen
##ntando
##ojar
##pora
##ree
##rid
##scrito
##sha
##sistio
##sson
##tadores
##tento
##terio
##tesis
##tones
##tran
##ub
##vera
##virtieron
##vuelto
adelantado
admisibilidad
agraria
alianzas
aliento
alteza
apurate
ar
atractiva
autorizadas
basan
bebiendo
beisbol
benin
blue
case
cobre
companera
complejidad
conseguimos
constructivo
contestar
convierta
correos
cortes
data
davis
desplazadas
dilo
documental
duenos
elige
encerrado
entablar
equitativa
eritrea
escocia
esperemos
estacionamiento
estipula
estupidez
etnicos
excursion
extraordinaria
financiamiento
francamente
funcional
golpear
hamas
heroes
hill
identificado
incluira
inconsciente
indio
inquietud
inseguridad
interiores
jackie
jeremy
joseph
junior
karen
lamenta
lana
lealtad
levante
liberales
llenar
llevaria
llevarla
lote
m2
mancha
manifesto
maravilla
margaret
marty
medianas
mentales
minimos
mmm
monica
musculos
obtencion
originarios
parlamentos
paulo
perfiles
pesada
pinturas
placa
plomo
profesora
profeta
proporcionando
provecho
publicada
publicamente
pulso
queden
rama
recibidas
reducida
representado
revistas
robin
rodeado
sacaste
sana
saneamiento
sanitario
sindicato
sirio
sostenido
subsidios
sueldos
sueltame
tarifa
temporales
textiles
transnacional
tuberculosis
valiosa
vegetales
visite
vitamina
we
##37
##55
##72
##ania
##bil
##cano
##cesion
##ceso
##cian
##cky
##ctados
##cula
##dicar
##du
##ductor
##ficada
##gresista
##gresivo
##hetes
##ibera
##ike
##indo
##iologia
##ist
##itivos
##kar
##laron
##lera
##lga
##lios
##mesticos
##ndos
##nu
##ogio
##onia
##orra
##osos
##pedir
##plica
##pp
##pretado
##pretar
##ptar
##rales
##rario
##rma
##rupcion
##stro
##tiste
##tizar
##trices
##uen
##uian
##uy
##veniente
##visor
##visto
##ws
##yen
102
abraham
academicos
accesible
accionistas
adoro
afortunadamente
aislamiento
amanecer
apetito
arruinado
autoriza
baje
banos
bendicion
blanqueo
cabana
cambiara
capturas
caroline
cartel
castigos
cataluna
citada
ciudadana
clasico
compatibles
complejas
comunicarse
comunion
condicional
condujo
conocio
consta
dc
decian
descansa
diarios
diego
discursos
ejemplar
empiezan
enfrente
entendemos
enterado
envases
equivalentes
esencialmente
especializada
estadio
exploracion
expresaron
france
geneticamente
gustado
habana
haberle
hacerla
hacienda
historicos
ho
honestamente
imagina
incorrecto
insiste
instancias
intensa
iraquies
juegan
juicios
justificacion
liberar
lidiar
literalmente
llames
logico
manten
manzana
mario
martha
matan
mateo
medicas
medioambientales
mencion
merecen
muero
my
notificado
obtenida
obtiene
ofreciendo
oscura
parientes
partidarios
pedazos
pensaste
perjudiciales
pidieron
planeando
presa
probabilidad
productivo
propuestos
protegido
protegidos
proviene
pudieras
receptor
recuerde
residente
respeten
restablecer
restauracion
rojos
rosas
rutas
sabiendo
selva
sindrome
sumas
tanques
tela
tenis
terminara
tina
transaccion
transformar
trigo
vendran
viajeros
vince
vivian
##43
##70
##94
##anza
##bos
##cal
##cesos
##chester
##cible
##cinado
##cision
##cla
##dge
##dificacion
##enna
##eon
##ferir
##gidos
##gma
##guesa
##iberado
##ifique
##igada
##lyn
##mentan
##metros
##moto
##nder
##nito
##ntal
##ola
##padas
##pirar
##ponerse
##portado
##press
##quivoco
##raneo
##rendio
##rero
##ribucion
##rizar
##scripcion
##sky
##terranea
##tuario
##tuve
##uck
##udio
##ulto
##vic
##vidad
##xual
adaptar
adivina
adivinar
africano
ajustan
alcanzados
alejado
alimentar
antiguedad
anualmente
aparcamiento
artificiales
aspiraciones
atomica
autorizada
ayudare
baratos
best
bodega
brillo
buscas
canciller
capas
casino
cercanos
chloe
christian
cojones
comparten
competicion
competir
confidencial
considerados
constantes
contengan
contingente
contratante
costado
crearon
creatividad
crecido
cualificada
cuestionario
cueva
cuida
daremos
deban
dejala
democraticos
dennis
denominada
disculparme
disminuye
divisiones
donacion
dorado
ejecuciones
empecemos
encantan
encuestas
envejecimiento
estadisticos
exactitud
excesiva
exportador
exposiciones
falla
fenomenos
franklin
gc
genocidio
globo
gritando
gritos
haciendolo
htm
incendios
incertidumbre
interrupcion
inundaciones
invitar
lacteos
largos
llamarme
lleven
localizacion
luce
manipulacion
marshall
maternidad
matrimonios
mensual
mereces
mexicano
mudo
observatorio
operativos
orgullosos
ovejas
palma
palo
parker
planteado
plantean
postre
presentaciones
preventiva
prever
profundas
quedes
radar
rata
rechaza
reconocida
reservar
reside
revelacion
rezar
roy
royal
ruth
salvajes
seleccionados
sirva
sospecha
subprograma
subrayo
sun
taiwan
tendriamos
this
tire
transferencias
tratara
trenes
ubicada
unanimidad
vd
vernos
vinculadas
virtual
volumenes
volveran
##21
##22
##31
##42
##46
##91
##95
##98
##ais
##ald
##ama
##ancia
##asta
##ativo
##blar
##camiento
##cando
##cel
##cipientes
##citar
##cracia
##decir
##diste
##ebe
##eres
##gramos
##guera
##hat
##ilados
##isco
##isimo
##ital
##its
##jados
##lamos
##liar
##llen
##lver
##lvia
##macion
##micos
##nah
##nales
##ndolo
##ndy
##nimo
##nuncio
##oh
##oli
##ons
##otente
##picio
##plazado
##quivoca
##racy
##rea
##reo
##rezco
##rientes
##rtos
##sima
##stia
##tarios
##tecto
##tel
##tientes
##tines
##tradas
##tti
##tuto
##uidas
##ulador
##ulta
##umir
##verso
##viado
##vino
##xion
101
abran
actitudes
asistieron
asusta
audio
auditores
ayudaria
ayuden
bilateral
bondad
brad
brinda
bruja
calentamiento
causando
censura
clausulas
comenzando
comenzara
conejo
conocerlo
contesta
corren
cortos
cotidiana
crc
cuanta
cubiertos
cuentame
culpar
debiste
definidos
dejaria
delicada
demasiadas
demostro
derek
desaparece
desaparicion
detallado
directas
discusiones
disenados
disminuido
distribuido
doha
durar
efectuadas
elevados
enrique
esclavitud
escuchaste
estudiado
estuvieras
exponer
expuestos
fama
fiables
ficcion
flora
flujos
formo
frankie
funcionara
gabriel
genetica
gibbs
gimnasio
gris
hacernos
hidricos
ilicitas
ilimitado
importaba
imprimir
inicia
intentan
juguete
lazos
lewis
lima
liquidos
litoral
london
maleta
matara
may
modernas
muneca
namibia
niza
novedades
ocurriendo
olas
olivia
otorga
pacificos
paraguay
peleas
pelotas
permanecen
pierdo
plantilla
poesia
preguntarte
produzcan
protege
protegida
quedaran
quema
querras
reconocidos
regresare
ricky
sally
seguras
significativos
sillas
so
sufrio
suministrar
suprimir
tanque
tomarse
tonteria
torneo
toro
traere
traicion
trajes
transcurso
tyler
ui
umbral
vagina
vayanse
veas
vencer
vendiendo
visitante
vocacion
volveremos
walker
##000
##07
##acciones
##azo
##bidas
##cerse
##dicios
##ductos
##eando
##ectos
##entar
##ergias
##esas
##esina
##ev
##fan
##gentes
##gestion
##giado
##gion
##gregacion
##guiera
##guracion
##guro
##iley
##itivo
##jera
##ladores
##lip
##lls
##mal
##mitida
##mulo
##nita
##nomico
##ogos
##orado
##orro
##pie
##plicaciones
##pondra
##pongo
##reto
##rezca
##riados
##rich
##ridos
##riedad
##rrie
##sificacion
##stilla
##tece
##tologia
##tricos
##tual
##tue
##ublic
##udos
##uesta
##uncia
##ural
##uti
##uticos
##vadas
##verti
##vierto
##viii
##wich
1947
1964
1965
acreedores
admite
altar
amantes
amparo
anadio
angulo
anunciado
apruebe
apunta
atentados
bares
barrera
betty
bus
buscaba
cafeteria
camarada
canadiense
cantando
cementerio
centrado
centroafricana
centroamerica
chiste
cigarrillos
cintas
circular
columnas
conf
confesion
consideradas
contable
controversia
convocatoria
cordero
cubiertas
danza
dedicacion
defecto
democraticas
desertificacion
edades
educativa
efectivas
efectuado
electorales
emiratos
emitir
episodios
equipaje
escaso
escondido
especialista
espectacular
estariamos
eterno
facultades
fianza
fieles
filtro
fmam
forense
fresca
garaje
garantizado
harina
hectareas
hierbas
huella
incapacidad
incorporarse
increiblemente
indigena
innovadoras
inteligentes
intercambiar
intermedio
intervalo
investigando
italianos
joan
julie
liechtenstein
llevaran
love
lucro
manchas
maquillaje
metio
michelle
min
montar
morales
motivacion
moto
muchacha
mundos
museos
nacidos
novedad
obispo
oculto
operar
orientado
orquesta
pato
perdidos
pesc
pilotos
placebo
planetas
plantear
pluma
ppe
preferencias
preocupan
presentaran
prioritarias
prioritario
prolongada
pudimos
pusiste
quedaron
quito
randy
realicen
reclamante
rehenes
relevante
respaldar
restituciones
resultan
robot
rojas
rol
sao
satelites
school
significar
solido
sonando
supuestamente
suspender
tayikistan
temporalmente
tomalo
trabajadora
tranquilidad
uk
up
vacas
valientes
vapor
voluntariamente
##65
##82
##84
##ade
##alth
##anas
##arte
##bu
##bulos
##clado
##cripcion
##crito
##ctadas
##decen
##demica
##eca
##egar
##ei
##ets
##eva
##ficia
##fre
##gnada
##grando
##hh
##ianos
##igio
##ik
##ika
##ille
##ime
##imientos
##inger
##iso
##ium
##laga
##lamentaria
##lare
##lenta
##letas
##lica
##licidad
##lificar
##ln
##lton
##lucosa
##mados
##mero
##minados
##mitia
##mple
##ndida
##nomia
##nts
##parable
##pata
##pere
##ph
##pusieron
##riles
##rilla
##rris
##rros
##ructiva
##sco
##sidio
##struir
##tendio
##tengan
##terna
##tible
##tizaciones
##trales
##uero
##ulan
##uld
##vierte
##visa
##voz
122
1945
1950
1966
1968
actuan
administradores
alternativos
amables
american
ampliado
aporta
apoyan
aptitudes
armonizar
arreglado
asciende
asesinada
asociadas
atma
autonomo
basarse
belga
bendiga
beneficiario
benjamin
bomberos
botellas
brevemente
bruce
buscado
cairo
calla
carece
carecen
centra
centrarse
charlotte
comedor
completado
consistente
consonancia
conte
contenedor
contraria
decidieron
deportivo
deseaba
desmovilizacion
despedida
development
dick
discapacidades
dispara
distritos
dominante
donaciones
dotacion
eco
eficientes
em
encontraran
encontrarla
entienden
enviaron
escrituras
espanoles
espectaculos
estricta
eternidad
exhibicion
extranas
facilitara
falsas
famosos
fauna
favorecer
federativa
feo
fiabilidad
financiados
frases
fuegos
galaxia
ganando
ganchillo
gradual
gritar
guau
hagamoslo
harvey
hombro
horizonte
hrc
ian
ilicitos
implantacion
impuestas
incorporado
intensificacion
ix
jamahiriya
jamie
journal
juguetes
justin
legislativos
legitimo
llevarme
manda
mires
moldova
molly
monsieur
montreal
monumento
mostrara
optima
participante
partidas
pedirte
personalidades
php
plasma
ponerle
poseer
pp
prefieres
primarias
producidos
proporcionada
prospecto
provoco
quimioterapia
rayo
rebecca
recaudacion
recomendado
reducciones
regulares
rentabilidad
reparto
repite
resistir
respete
rollo
romanos
romantico
rota
sagrada
salidas
saludos
sebastian
sentar
septentrional
sesenta
simbolos
simultaneamente
sirvio
subsidiarios
subvencion
suelos
suelta
surgido
terminacion
terrenos
top
traera
triunfo
tropicales
tumor
universitarios
urgentes
uzbekistan
vacuna
viuda
williams
willie
##ame
##bligo
##cadas
##cientos
##cimos
##cts
##eren
##ette
##exual
##financiacion
##fp
##get
##gidas
##hop
##ientes
##imar
##ingue
##ipe
##ivan
##jiste
##jones
##lake
##lden
##ligencia
##loro
##lum
##mentando
##mentaria
##mera
##nero
##nez
##nor
##oa
##oc
##oga
##ony
##oras
##pana
##piezo
##plazo
##plementarios
##precia
##preciacion
##quilibrada
##riar
##ribuyan
##rrer
##ser
##shi
##struyo
##tagonista
##teros
##tire
##tol
##toso
##tras
##tuviese
##uche
##udado
##udados
##uelva
##ujo
##ulando
##undido
##urno
##usiera
##venidos
##venir
##viste
##xt
##yd
##zer
abby
acogemos
aduaneras
alicia
andrew
anillos
apoyando
auditorias
auxiliar
auxiliares
bahrein
beach
biologicas
bodas
brote
cabina
calientes
canta
carpeta
casarte
ceca
celebraran
celoso
celula
ciclos
citar
colectivos
comienzos
compatibilidad
confiable
conocidas
consideraba
constituido
contactar
continental
coraje
corregir
cristales
cuadrados
decidi
dedica
dependera
der
derivadas
detiene
diplomacia
diras
dispare
doloroso
duros
ego
elite
encendido
entendera
enviando
ethan
excluir
facilitado
factura
falsos
fantasmas
fantastica
firmas
fundada
gafas
goma
gozar
greg
guias
guyana
habitos
hablarle
habrias
hicieran
ideales
iluminacion
impiden
inspectores
jardines
jay
laboratorios
lactancia
legalidad
legitimos
lejano
liquidez
llegaran
lograrlo
magico
mantenerlo
marcho
medalla
medias
medicinas
mercantil
mickey
milan
miller
monterrey
naci
nadar
nc
negras
noroeste
obrero
observatory
ocurrira
odiaba
orejas
organizadas
organizados
oyo
pata
pe
periodicas
placas
polo
postal
preambulo
preguntan
previsiones
prisiones
promoviendo
promueve
propagacion
provenientes
pudieramos
razas
realidades
receptores
reciba
reclamar
recuerden
referendum
repercusion
reservado
resuelto
resulte
reunieron
rigen
salgamos
salta
seguire
siglas
socialistas
sodio
sometidas
sonidos
sugerencia
sustituir
sustituira
suyos
tatuaje
temperaturas
terminamos
transferir
trayectoria
tubos
tuvieras
unicas
vacunas
vanguardia
vano
verduras
viniera
##19
##36
##38
##97
##anda
##arla
##atas
##ave
##aves
##bacion
##bolismo
##canica
##cedan
##cedido
##cedieron
##cionados
##clamo
##cologia
##com
##comendar
##cten
##dice
##dismo
##ecen
##ecidos
##emia
##enadas
##enado
##erve
##estia
##factoria
##forestacion
##gador
##gers
##gios
##gracion
##gui
##iaca
##ifican
##ignar
##ilas
##inen
##ings
##int
##isticos
##istido
##itio
##jetiva
##ju
##kes
##ladar
##lah
##lantes
##licitamente
##lificaciones
##lizan
##ller
##lock
##lores
##mbo
##mbro
##minen
##mir
##mito
##moslo
##mpa
##nimos
##nso
##ocio
##oi
##oom
##ordinada
##ow
##parado
##phy
##por
##portistas
##quin
##rc
##rear
##ribuciones
##ribuidas
##rice
##ristina
##rzan
##siguen
##siguiendo
##simo
##sita
##stes
##tenimiento
##than
##ticamente
##tifico
##tivamente
##trogeno
##tter
##unde
##uston
##ution
##vados
##vente
##vy
##xuales
##zis
##©
107
1373
1961
aborto
acostumbrado
actuado
afectada
afecto
afirman
agradecido
agrupaciones
ai
alias
alineados
almorzar
anciano
ann
ansiedad
arterial
asesinados
asistentes
atentamente
autopista
ayudarla
ayuntamiento
basilea
bell
botas
br
brasileno
buscarlo
ca
campamentos
carol
cerdos
clinico
clinton
completos
comprenden
conciliacion
conexos
confundido
conlleva
conocimos
conspiracion
contamos
contenedores
contratantes
convertira
cuartel
culto
dados
decida
decoracion
delgado
delincuentes
democratas
desarrolladas
descolonizacion
desempleados
despedido
determino
diametro
dictadura
dijimos
disenos
docena
doctores
duras
ecologico
elevacion
empleador
enamorada
encargadas
enojada
espia
esquema
estableciendo
estimados
etnicas
extraer
extraterrestres
extremos
facilita
falsificacion
fascinante
firmes
florencia
foco
folleto
formularon
ganamos
ganan
geografia
gesto
gota
griega
group
hablame
hablaste
hechizo
hemoglobina
homenaje
huerfanos
indebido
informativa
inquietudes
instalado
irani
jersey
jessica
judia
jugado
karma
kent
lao
ligera
lincoln
litros
llevados
lois
louise
maritimas
mediacion
mexicanos
monos
musicales
nauseas
navegador
necesites
negar
nobel
north
obligar
ochenta
oirlo
oponen
or
oradora
ordenamiento
ordinarios
paralelo
peleando
perfume
ponia
pornografia
preocupante
prestigio
probarlo
proporcione
prostituta
protector
provoca
puentes
putin
recibiran
reflejar
renovar
reparar
repeticion
respeta
respondido
resultante
resultantes
sabras
sabria
salia
seguian
senoritas
solitario
superado
titulada
tomaran
tour
trabajadoras
traidor
unilaterales
wayne
##64
##85
##aby
##acta
##aine
##americanos
##asco
##bioticos
##bito
##cemos
##cenas
##cesar
##ceutica
##cm
##comendada
##comendadas
##cortes
##cribo
##decemos
##didad
##dis
##duccion
##dula
##eciente
##enar
##encias
##ense
##erse
##ete
##fantes
##fonia
##gible
##gicos
##gulado
##gusto
##hang
##iando
##icano
##igado
##ilio
##inar
##inde
##inio
##iologico
##irme
##itada
##itero
##landesa
##lara
##leria
##lino
##live
##liz
##lones
##lucion
##luyen
##minente
##mirante
##mocrata
##movido
##ncy
##ndesa
##neas
##neos
##nias
##nic
##noma
##ntacion
##ogico
##omas
##omen
##orar
##oris
##pano
##parente
##plementario
##plicada
##ponen
##puse
##queria
##quista
##rabado
##raficantes
##raga
##rah
##ridad
##riota
##rogante
##roy
##ructor
##ruida
##rus
##sene
##servacion
##sito
##spirado
##stituida
##suelo
##tarlo
##tat
##tega
##tenida
##tenta
##terias
##tetico
##tificada
##time
##tricion
##uando
##ueve
##uja
##uloso
##vale
##vencia
##venido
##viacion
##visible
##wski
##xicidad
##zona
##zzi
111
117
2020
aburrida
acogiendo
adoptando
afueras
aplausos
arruinar
asco
asesores
aumentan
aumentaron
avanzados
banca
barrios
bart
bienal
bonos
cambian
camping
capitalismo
capitalista
capullo
cargado
carmen
casar
catherine
ccpr
celebraron
celebre
cenizas
center
cese
cesion
combinada
compartido
complice
comprador
comprometida
concedio
confie
conseguire
consigues
construida
contempla
contradiccion
contrasena
convino
corral
dejarla
delicado
denunciar
deportivos
destinatarios
diariamente
diran
directivo
directriz
discutiendo
disfrutan
disfrutando
disfruten
distinguir
divide
dorada
economicamente
efectividad
elliot
encaminados
energetico
enganar
enterrado
equipamiento
esconder
escriba
especializado
establecerse
establezcan
estarlo
estelar
estrasburgo
estricto
euratom
experimental
expulsion
extensiones
fatal
favorables
fccc
fibra
figuras
finalizado
ford
formalmente
gigantes
haberla
hepatica
hermandad
higiene
ilusion
implementar
incompatible
indicada
indirectamente
informaticos
injusto
insectos
insistir
integrantes
interprete
involucrados
islamico
jan
joyas
justifica
katie
labores
lapiz
lenta
levantamiento
levanto
llamara
llamarlo
logra
lopez
mafia
magnifica
malaria
matthew
memorando
merito
mini
miran
mitigacion
morira
mozambique
muchachas
music
ola
orar
organiza
pagando
pares
parlamentarios
pavo
pesqueras
polaco
pondremos
ponemos
poseedores
preocupados
prestara
previos
prometi
prometida
pronunciado
protegidas
quedese
quimico
radical
recesion
rechazado
relevancia
remix
representados
robos
romanies
rumor
saludo
santidad
satisfactorio
semilla
sendero
situa
soltero
sp
stone
sufragar
sumo
supuestos
tapa
tendrias
tiras
toxicos
traes
trajeron
tranquilos
tratarse
usen
veria
violento
virginia
vulnerable
was
##67
##74
##93
##agan
##ani
##artan
##bai
##blin
##brina
##caciones
##cedio
##cepcion
##chon
##ciada
##ciando
##ciantes
##ciation
##cipada
##cks
##cle
##cogidos
##cogio
##conocida
##cribio
##cuente
##dete
##dimos
##duro
##ent
##ep
##ergentes
##eter
##fante
##feriria
##fero
##file
##fines
##forzado
##gena
##gicamente
##gitimidad
##gnacion
##guemos
##hoo
##iccion
##icto
##icula
##idio
##ificaciones
##ilipollas
##imizar
##inarias
##isada
##istan
##istema
##itante
##jena
##laza
##lish
##lito
##litud
##lmes
##loca
##lph
##ments
##meta
##ministra
##ministrado
##mis
##ndante
##ndieron
##nida
##nomicos
##ntan
##ntas
##ntia
##oad
##oda
##ody
##olis
##once
##orth
##paga
##pectro
##pedia
##picios
##piracion
##portan
##quel
##quen
##quilibrado
##rde
##reste
##ricas
##riga
##rimir
##rnando
##rofe
##rragia
##rudente
##seme
##sistema
##stituyo
##sy
##tancia
##tilacion
##tilla
##tios
##trarse
##tula
##uantes
##ucia
##ulsion
##umpliendo
##uru
##utar
##vador
##vidido
##xto
104
1956
adjunta
afiliados
agregar
andrea
apagar
aplicadas
are
armamento
asegurate
asesinar
asignar
asume
atreves
aumentara
ayudaran
bancarias
bernard
biologicos
camina
cana
capturar
cardenal
cayendo
cazar
champan
colonial
comen
comes
competidores
comunistas
concedidas
condenados
contare
contemplada
contenga
contenidas
contesto
continuen
contratista
conyuges
coordinadores
corbata
corredores
correspondencia
cualesquiera
cuartos
cuente
cuidada
dedicados
definen
dejaras
dependencias
deportivas
descubri
diente
dimos
directorio
disponga
disturbios
divertida
donald
doug
drama
ejes
emea
encontraban
encontrarte
enfasis
enfrentamos
enhorabuena
ensenado
entienda
entornos
esclavo
escuchan
espaldas
estables
estimo
estrategicas
eventualmente
exponen
expuestas
facilite
fiji
fijos
frescas
fuertemente
fundador
fundadores
ganadores
ganancia
generador
generalizada
gmbh
graficos
guardian
gustara
hablarte
halla
harto
hermosos
hilo
horror
ignorancia
informada
ingeniero
ingenieros
innovador
institutos
intentare
interamericana
ivan
jugada
juridicamente
justamente
kennedy
kilometraje
lagunas
lavar
leal
liz
llenos
lluvias
lograron
lou
malawi
manifestado
mares
masculino
mataran
mete
mexicana
mineria
misa
miss
modulos
muestreo
narices
neil
nervios
obrera
ordenado
osos
pandilla
parlamentario
pasen
patas
pedia
perdono
pida
piensalo
pierden
pilares
polla
postales
preliminares
prepararse
prioritaria
probabilidades
provision
quedaria
querra
raros
reconozco
recto
redujo
referido
refirio
reglamentarias
regresara
res
residuales
revelar
rie
rob
rodriguez
rutina
satisface
seattle
sectoriales
sentados
sequia
serbios
seul
shanghai
sientan
silvestre
singular
sintoma
situadas
sobrino
sospechas
suicida
superficies
territoriales
tirado
tocando
todd
tramo
trampas
trauma
trucos
turistica
turistico
universales
varon
venden
vicente
visitado
volviste
woods
##!
##"
###
##$
##%
##&
##'
##(
##)
##*
##+
##,
##-
##.
##/
##:
##;
##<
##=
##>
##?
##@
##[
##\
##]
##^
##_
##`
##{
##}
##~
##¡
##¢
##£
##¤
##¥
##¦
##§
##«
##¬
##®
##±
##¶
##·
##»
##¿
##×
##æ
##ð
##ø
##þ
##đ
##ı
##ł
##œ
##ə
##ˮ
##α
##β
##γ
##δ
##ε
##ζ
##η
##θ
##ι
##κ
##λ
##μ
##ν
##ξ
##ο
##π
##ρ
##σ
##τ
##υ
##φ
##χ
##ω
##а
##б
##в
##г
##д
##е
##ж
##з
##и
##к
##л
##м
##н
##о
##п
##р
##с
##т
##у
##ф
##х
##ц
##ч
##ш
##щ
##ъ
##ы
##ь
##э
##ю
##я
##і
##ј
##қ
##ҳ
##ا
##ب
##ة
##ت
##د
##ر
##ز
##س
##ط
##ظ
##غ
##ل
##م
##ن
##ه
##و
##ي
##پ
##ک
##ہ
##ی
##ख
##न
##प
##म
##र
##ल
##स
##ो
##ॐ
##க
##ட
##ண
##ி
##ನ
##ಬ
##ರ
##ೂ
##ก
##ง
##ท
##พ
##ย
##ศ
##อ
##า
##ไ
##ᄀ
##ᄃ
##ᄇ
##ᄉ
##ᄋ
##ᄌ
##ᄐ
##ᄑ
##ᅡ
##ᅥ
##ᅦ
##ᅩ
##ᅭ
##ᅮ
##ᅵ
##ᆫ
##ᆸ
##ᆼ
##‐
##–
##—
##―
##‘
##’
##‚
##“
##”
##„
##†
##‡
##•
##′
##⁄
##€
##₷
##→
##↓
##↔
##−
##∗
##∞
##≤
##≥
##⌘
##─
##■
##□
##►
##▼
##◄
##●
##☑
##♥
##♦
##♪
##♫
##➾
##ⴗ
##い
##か
##の
##ら
##・
##一
##上
##不
##世
##人
##仄
##以
##你
##來
##公
##其
##刘
##刚
##卷
##厦
##司
##后
##哀
##在
##地
##夢
##天
##女
##始
##子
##宇
##實
##山
##庄
##底
##後
##得
##心
##情
##想
##愁
##愛
##懂
##我
##手
##授
##收
##新
##方
##日
##春
##是
##暗
##曾
##月
##有
##未
##校
##業
##樣
##歌
##正
##水
##活
##海
##煤
##王
##玲
##現
##琳
##瓣
##甚
##生
##田
##留
##的
##看
##真
##經
##緣
##習
##聽
##與
##花
##若
##茅
##薛
##蛮
##補
##說
##誰
##谩
##跟
##路
##过
##過
##都
##铆
##開
##门
##隆
##雨
##青
##驴
##麼
##
##
##
##
##
##�
##🇬
##🇭
##🎉
##😂
