[PAD]
[UNK]
[START]
[END]
!
"
#
$
%
&
'
(
)
*
+
,
-
.
/
0
1
2
3
4
5
6
7
8
9
:
;
<
=
>
?
@
[
\
]
^
_
`
a
b
c
d
e
f
g
h
i
j
k
l
m
n
o
p
q
r
s
t
u
v
w
x
y
z
{
}
~
¡
£
¤
¥
§
©
«
¬
®
°
±
¶
·
»
¿
×
æ
ð
÷
ø
þ
đ
ħ
ł
œ
ʼ
ˮ
α
β
γ
δ
ε
ζ
η
θ
ι
κ
λ
μ
ν
ξ
ο
π
ρ
σ
τ
υ
φ
χ
ω
а
б
в
г
д
е
ж
з
и
к
л
м
н
о
п
р
с
т
у
ф
х
ц
ч
ш
щ
ъ
ы
ь
э
ю
я
є
ن
ه
฀
‐
‒
–
—
―
‘
’
‚
“
”
„
†
‡
•
′
‹
›
⁄
€
↑
→
↓
↔
∂
−
√
∞
≤
≥
■
□
▪
►
●
♦
♪
➥
土
魯






�
det
att
jag
ar
och
for
har
som
du
av
en
inte
pa
med
den
om
till
vi
de
##s
ett
sa
kan
var
han
mig
vad
dig
ska
eller
##en
men
##t
ni
vill
kommer
fran
maste
##a
detta
vara
nar
nu
skulle
bara
hon
hur
dar
man
far
##n
alla
min
##na
vet
artikel
skall
##er
nej
ha
sig
honom
gor
da
oss
andra
##r
din
##e
denna
ja
gora
dem
ta
ut
europeiska
vid
er
kom
mycket
under
an
efter
##et
kommissionen
bra
upp
ocksa
##ar
allt
hade
in
##d
se
forordning
finns
##de
fa
nr
tror
genom
dessa
eg
mot
over
ingen
okej
enligt
ga
bor
varfor
mer
eu
inom
utan
behover
henne
gar
tva
igen
nagot
tack
aven
galler
kanske
nat
bli
mitt
satt
ser
blir
lite
vem
mellan
forsta
darfor
ge
nagon
inget
aldrig
hans
foljande
sin
val
sag
hej
tar
beslut
saga
fraga
nagra
dag
##nde
at
tillbaka
kommissionens
herr
gjorde
##o
ju
sager
mina
hela
##i
##l
ratt
##y
punkt
direktiv
varit
vilket
enlighet
fick
fram
eftersom
kunna
sen
atgarder
varje
lat
radets
kunde
##ning
vart
borde
nya
sarskilt
ditt
manga
nan
medlemsstaterna
saker
samma
komma
stod
vissa
tre
bilaga
##re
del
kanner
deras
hos
tid
##or
sina
radet
gjort
nog
fall
helt
ner
10
redan
verkligen
unionen
gang
samt
##erna
sjalv
alltid
fan
barn
inga
##g
vilken
sitt
annat
innan
mamma
sedan
pappa
ville
vilka
##k
battre
annan
tog
##ts
##on
fortfarande
gemensamma
talman
forslag
vanta
fel
star
##ade
problem
dess
blev
liv
ger
hjalp
hit
eeg
##m
dina
12
just
visst
##at
uppgifter
menar
anges
prata
bort
unionens
stor
ekonomiska
halla
anser
tanker
hem
20
europa
olika
tycker
forstar
mr
foretag
##in
precis
enda
##an
information
avses
##ing
hennes
##het
stora
gemenskapen
beratta
##as
folk
haller
gick
langre
trodde
vilja
gud
veta
fru
fragor
alskar
hjalpa
fordraget
##da
nationella
beaktande
ur
30
mojligt
parlamentet
medlemsstater
##0
2006
doda
titta
##2
sett
11
##ra
lange
##are
hander
gillar
manniskor
visste
##arna
forst
2004
##es
15
namn
va
hand
##lig
hor
sant
##p
produkter
##ig
grund
hall
anda
hitta
##1
hoppas
pengar
2005
lander
van
##5
vag
endast
sluta
fatt
sak
skal
fore
##la
##3
dom
mal
god
lamna
sadana
##ad
flera
tillsammans
forlat
ligger
##6
##c
direkt
fragan
marknaden
patienter
##ta
ny
forsoker
mindre
ordforande
viktigt
dod
nasta
bar
ens
annu
##liga
foreskrivs
kvar
eut
visa
2007
sarskilda
2003
##h
tidigare
ledsen
2002
morgon
snalla
##us
basta
tiden
snart
delar
verkar
miljoner
2000
rattigheter
fast
later
bestammelser
betankande
varlden
sir
land
ytterligare
faktiskt
sakert
berorda
##9
25
heter
storre
##v
lika
tredje
borta
##4
bada
svart
##ligt
anvanda
dock
svar
##ande
slut
##8
arbete
mg
sista
utveckling
14
sex
##ens
##iga
##is
stanna
fyra
##ter
emot
##b
ah
fem
december
##ka
egt
europaparlamentet
valdigt
##it
medlemsstat
personer
tala
forordningen
vagen
tro
13
kvall
2001
klart
euro
ii
minst
1999
anvandning
gav
sagt
ror
icke
anvands
all
dit
ingenting
##u
fortsatta
16
2008
politiska
borjar
infor
roll
samarbete
avtalet
framfor
kor
sidan
handlar
mar
gemenskapens
dessutom
era
hande
kvinnor
manader
tillampas
plats
##7
avseende
pratar
exempel
avtal
bade
bland
##ion
kraft
javla
kravs
##ck
visar
behandling
helvete
hora
riktigt
samtidigt
##rna
##al
myndigheterna
juni
lata
heller
tankte
ute
europaparlamentets
##era
senare
##iska
senaste
son
helst
jobb
vidare
##el
dra
18
tills
manskliga
##ren
antal
senast
innehaller
sma
##man
2009
andringsforslag
hansyn
blivit
faststalls
nodvandigt
haft
internationella
rum
31
fler
##x
aka
dagen
##st
anvandas
tag
sadan
innebar
ganger
##des
##isk
niva
ursakta
##ns
horde
rad
ses
dagar
ramen
traffa
samband
sociala
allmanna
liten
sjalva
per
ihop
stort
borja
vanner
villkor
harifran
oppna
betyder
system
minns
klarar
ord
nastan
17
herregud
kolla
lag
utanfor
vantar
trots
alltsa
langt
ex
livet
radd
do
lagga
tjanster
procent
21
lyssna
typ
##igt
##ningen
betankandet
nara
##ma
stallet
tacka
vatten
jo
omrade
##ga
foljer
minuter
##j
2010
hittade
omraden
100
50
folja
mest
timmar
##f
##ie
egen
gangen
kontroll
tio
omfattas
nummer
##ten
000
avsnitt
kort
22
be
form
##kt
##ska
omradet
nytt
19
##ia
krav
varandra
behoriga
januari
program
verksamhet
andras
politik
##lar
runt
skapa
tagit
import
bestammelserna
igenom
24
ibland
juli
talar
vore
ber
grundlaggande
lakemedel
snabbt
sakerhet
sida
dollar
ifran
##z
##ningar
kommit
##pa
gatt
syfte
tank
bilen
idag
familj
##ch
viktig
##ste
##um
annars
utgor
utskottet
##tt
ert
spelar
hort
##ja
garna
regler
emellertid
##le
medan
na
fanns
naturligtvis
spela
lang
egna
tillrackligt
bakom
illa
polisen
ovriga
dog
mars
skit
lever
oktober
##nas
godkannande
tas
undantag
bil
skydda
inre
varor
finansiella
gott
hemma
lagstiftning
forslaget
gamla
##rar
klar
skydd
andring
fort
tur
aker
offentliga
hogre
grupp
hamta
hant
lagg
landet
23
fattar
forsoka
redo
viktiga
anvander
glad
satta
hittar
officiella
svara
##os
##sen
##va
hus
grundval
kanns
kvinna
medel
sta
dr
kommitten
ofta
lilla
##ne
inne
mojlighet
kanna
##te
ansvar
mannen
storsta
forsokte
sla
2011
medlemsstaternas
situationen
san
ihag
lakare
maj
kul
ensam
tanka
29
herrar
huset
april
kapitel
september
28
behov
bryssel
behovs
djur
forenta
medborgare
natt
stodja
hog
dodade
##ll
antar
bast
latt
direktivet
gruppen
person
radda
borjade
ganska
inklusive
landerna
##ge
##gen
kalla
halsa
kande
liksom
sadant
begaran
ej
jobbar
tekniska
##ering
harigenom
reda
##sk
alskling
bidrag
finnas
systemet
bilagan
rattsliga
ata
chans
resultat
dags
faststalla
aret
klara
artiklarna
gemensam
vapen
alls
genomfora
tillgang
utvecklingen
##erade
##ndet
killen
steg
the
00
genomforandet
ersattas
losning
narvarande
november
onskar
tanke
foljd
slapp
tydligt
vecka
borjan
bryr
framja
sitter
tillampningen
utom
vars
##aren
##den
##len
nodvandiga
projekt
ringer
betala
ide
sade
forbattra
27
stycket
atminstone
dotter
goda
kille
oka
betydelse
##itet
europeisk
veckor
eget
forra
forsok
damer
gammal
ges
plan
bror
iii
jobbet
skada
tyvarr
40
##nt
kraven
leva
meddelande
tillstand
##der
##tion
hogst
lagt
par
problemet
fri
pengarna
antagit
utbildning
##ce
rapport
##sa
behandlingen
avser
fallet
fungerar
programmet
skull
slutet
##iskt
26
dor
ml
antingen
fortsatt
kraver
sakerstalla
gemenskapernas
hjalper
uppfyller
##ier
framtiden
racker
sanningen
sasom
ekonomisk
behova
organ
##id
beslutet
mat
nuvarande
myndigheten
bad
intresse
forfarandet
nedan
stammer
##erar
ater
enkelt
lugnt
##lt
rattigheterna
situation
##ell
absolut
forsaljning
upprattandet
##ton
ansokan
galen
minska
##ler
lamnade
2012
anses
leda
trader
via
##ner
##ur
amnen
fortsatter
##ik
framsteg
jack
lamnar
miljon
vagnar
visade
##kar
initiativ
ringa
forskning
##iva
stoder
##ng
arbeta
drar
galla
kg
staterna
bevis
myndigheter
goras
hogsta
republiken
ring
sjalvklart
##ring
frankrike
kallar
syster
mor
ratta
trevligt
namligen
nationell
saken
##ster
debatten
dorren
full
1998
blod
narmare
stalla
john
leder
skicka
laget
foraldrar
andringar
ursprung
vanliga
exakt
kora
lovar
omkring
bindande
vacker
##heten
fara
slutligen
tyskland
98
dodar
lampligt
lara
livsmedel
oroa
sju
starka
tyst
##se
antalet
flesta
regeringen
stan
februari
sags
tillampning
ars
faktum
liknande
tv
villkoren
##men
instrument
paverkar
##else
##om
foredraganden
ivag
lagger
misstag
lokala
new
omfattar
sarskild
vare
##rade
##son
skolan
tidning
96
forfaranden
samtliga
aren
beror
fullt
of
parlamentets
anledning
klockan
kommissionar
##orna
beroende
fordon
kostnader
2013
95
nagonting
1997
stalle
stoppa
##iv
##ol
egentligen
forfarande
overens
tillamplig
90
bidra
kina
lasa
malet
arbetar
hittat
undan
uppna
##nen
fartyg
ned
risk
enbart
faststallande
flytta
garantera
jobba
mrs
oberoende
synnerhet
handa
satter
ingar
tecken
anta
faststallas
lar
ske
93
belopp
ikvall
usa
##rad
letar
##00
1996
ringde
sent
viss
##bar
arbetet
gett
herre
##produkter
biverkningar
darmed
hart
kara
ledamoter
natten
skriva
totala
avgorande
viktigaste
forklara
kopa
parter
respektive
mening
yttrande
##ret
berattade
fint
mojligheter
##ken
datum
dvs
forut
forutom
kallade
losa
mote
saknar
tankt
uppe
##nar
91
foretaget
sker
strategi
vidta
60
forenade
kommission
studier
tillgangliga
visat
##ation
##ling
1995
handel
delen
lita
##ssystem
la
ont
standpunkt
vada
veckan
angaende
beklagar
forhallande
igar
##ke
##land
80
ees
fora
kolleger
ogon
##w
ben
debatt
energi
fred
taget
##eras
92
behovet
betraffande
gallande
resolution
tjej
##orer
atta
ena
hjarta
imorgon
killar
perioden
handlingar
karlek
regionala
undvika
ursakt
effektivt
kontrollera
nyligen
uppdrag
utrustning
huvudet
miss
reglerna
stannar
##ien
##ingen
betydande
italien
tom
utveckla
akta
antas
massa
enskilda
flicka
fn
nagonsin
pratade
undrar
##mar
##ley
behovde
forran
hatar
tjanst
kunnat
material
ordforandeskapet
punkterna
ton
behandlas
bull
gjorts
lugn
skynda
syftar
eventuella
valja
fullstandigt
kompis
relevanta
resten
uppgift
##tar
alltfor
sattet
stark
foregaende
jasa
perfekt
##var
guds
lampliga
ma
tal
aktuella
data
fin
institutioner
slar
tillfalle
varre
##ets
##ighet
##il
politisk
stal
uppfylla
##ven
dokument
effekt
historia
kott
medelstora
rosta
##rat
##ut
##ver
akte
annorlunda
bedomning
kl
tel
texten
allvarligt
barnen
daligt
medborgarna
mm
nere
parterna
resurser
varde
##skap
##yl
allvar
investeringar
##lla
##ro
fria
inbegripet
kallas
omedelbart
valkomnar
betalar
glom
manad
miljarder
ryssland
##ras
deltagande
folj
##ger
atgard
atgarderna
budget
idiot
kapten
valkommen
##tor
berattar
krig
lagre
ratten
social
andrad
bakgrund
gemensamt
kommissionsledamot
oavsett
president
vald
arg
delta
domstolen
ekonomiskt
franska
iv
kriterier
organisationer
tillampa
trott
97
fragar
ok
produkten
##dy
##ist
70
bygga
roligt
sjuk
stallning
tittar
##ats
avsedda
foreslar
motsvarande
tja
varken
familjen
infora
kropp
skyldig
statligt
##bara
##gar
##iet
gifta
sist
##medel
##vis
brott
framtida
respekt
sprak
allvarliga
framst
grad
jorden
polis
sova
ange
foreskrifter
igang
slags
statliga
tillhor
vanlig
##erat
agent
fatta
las
medlemsstaten
pagar
stodet
stund
varsagod
vikt
##erad
##ri
bekampa
enheter
lycka
omfattande
resultaten
slag
##for
hel
huvud
nytta
holl
intressen
lugna
sam
saval
slutar
##ker
##politik
okad
ordning
sitta
##nad
aldre
faststallts
hogt
internationell
spanien
unga
utstrackning
##gang
##ot
allihop
avfall
miljo
pris
slog
snall
ungefar
framtid
konstigt
order
rapporten
sektorn
##tiska
allman
forteckning
kontakt
levande
litet
omrostningen
synd
timme
al
hoppa
riktlinjer
uppmarksamhet
york
##io
foremal
period
tabell
##ionen
dos
farligt
omstandigheter
sakra
skjuta
tillampliga
alskade
beviljas
david
fixa
fungera
hoga
jordbruk
##ys
45
antligen
demokratiska
grabben
lamnas
omfatta
##heter
35
chefen
fragade
ovan
overvakning
positiva
gors
kvalitet
manniska
protokollet
tyckte
##ry
avdelning
foretagen
jamfort
krava
laga
soker
totalt
##cka
##ey
##tet
glomma
kaffe
resultatet
risken
speciellt
sysselsattning
tillverkare
tvungen
##pp
behalla
diskutera
forlorade
genomforande
ogonblick
samtal
staller
varld
yttrandet
bild
darefter
gift
kod
ligga
nio
traffade
##system
500
aning
effekter
forhandlingarna
##ium
##mer
kliniska
kriget
regioner
resa
samarbetet
uppgifterna
##omradet
befintliga
brukar
kammaren
okade
ordet
partner
principer
skickade
skot
##ingar
anvandningen
hamtar
hantera
riktig
##let
200
antog
europas
metoder
mord
ombord
specifika
##sprogram
forenliga
handeln
medlemmar
otroligt
adress
ansikte
extra
forbi
insatser
knappt
kungariket
last
portugal
##att
75
99
alternativ
begar
framat
genomforas
passar
principen
spel
upplysningar
utgifter
vinna
##isering
##ld
32
finansiering
forhindra
kant
kostnaderna
makt
normalt
##ca
##ine
##sektorn
innehalla
ledamot
organisationen
teknik
toppen
##me
glas
hittills
jaha
kommande
mark
motsvarar
rostade
synpunkter
##ed
87
administrativa
alldeles
fortjanar
forutsattning
ovrigt
transport
vanligt
33
ager
and
dalig
huruvida
istallet
overenskommelse
strax
ataganden
centrala
chef
dosen
dum
hinder
kontor
personal
priser
samman
staden
sticker
##ers
export
forlora
leta
orolig
stick
varldens
vetenskapliga
allmant
effektiv
jobbat
kampen
lamnat
oro
punkter
sana
tabletter
yttre
##lade
1994
allting
budgeten
dricka
finna
foretradare
hemskt
lagar
salja
skriver
slass
turkiet
befinner
bo
brukade
okar
paverka
smart
vinner
300
arliga
pojke
politiken
skaffa
snarare
ung
barnet
bistand
forsiktig
korrekt
laggas
saledes
staten
stater
tillhandahalla
augusti
charlie
delvis
glomde
lagstiftningen
rost
saknas
tidigt
verkliga
##lat
##ris
andrat
funkar
lista
middag
sakerheten
undersokning
utfardad
vagar
##co
##djur
##ellt
##nat
amerikanska
fangelse
forandringar
forteckningen
kollega
oh
##ister
bestar
doktorn
samhallet
spara
text
vita
36
grupper
irland
menade
namnet
offer
omojligt
on
planet
slappa
vuxna
##mi
##satt
##sta
fixar
frihet
rummet
satte
sekunder
utifran
##ella
##iserade
dialog
europeiskt
hallbar
kallad
laser
sover
##tisk
overallt
produktion
riktiga
skrev
sverige
traffas
vin
##ent
##fall
##ina
##las
##rum
anvand
asikt
forsokt
handerna
kopte
led
mojligheten
oppen
produkt
syn
territorium
uppmanar
##nade
##systemet
43
avsluta
foredragande
hot
lamplig
oj
risker
skapar
skillnad
tillagg
uppfattat
utvidgningen
vanster
##ratt
##ser
##tat
1993
analys
anslutning
intressant
ljus
marknad
mojliga
starkt
tredjelander
##ds
##og
##un
foljaktligen
folket
grekland
klader
lagen
lyssnar
ogonen
protokoll
spring
tillvaxt
trevlig
erkanna
forhallanden
forstora
hoger
hund
mike
noga
rora
svarigheter
##am
##erande
##ioner
##lag
94
demokrati
egenskaper
forbindelser
marken
matt
nederlanderna
ol
privata
rattvisa
rorande
typer
utfora
##gor
##jag
erkannande
forvaras
genast
granser
joe
kaften
kontrollen
linje
rent
stolt
utmarkt
##ha
##ika
##ran
##spolitik
##und
65
civila
doden
fjarde
forvaltning
malen
michael
mjolk
nanting
nyss
parlament
polen
positivt
rakt
regering
samordning
telefon
utnyttja
alder
broder
enhet
ersattning
forlorat
kvallen
smarta
underratta
undersokningen
##ala
##nor
##par
berattat
faller
forr
frank
lan
manniskorna
okning
skickar
skiten
syftet
##nd
##rs
##ve
advokat
drog
el
hamnar
inforas
kontroller
ljuger
nansin
raddade
besluta
bygger
exempelvis
film
genomfors
kvinnan
nyheter
planer
skriftlig
tillata
uppfattning
vattnet
##fragor
##lin
##lo
##to
acceptera
ecb
kollar
underlatta
vardet
##ft
##kning
##ls
##tas
forklarar
fritt
innehall
kontakta
sammanhang
tackar
talat
vidtas
viktprocent
##ende
##ment
##rummet
##sar
37
andrade
behandla
fly
hopp
internet
prova
tillgangar
utover
##lor
##losa
##skt
##stod
kanslor
oppnar
ordforanden
regionen
sjukhuset
skjuter
skyldigheter
##jer
##ssystemet
ansokningar
flickan
kn
lyckas
musik
svarta
uppskattar
##lan
agera
borjat
fiske
inleda
okat
paul
princip
anstallda
dela
george
itu
organisation
peter
slutsatser
tyska
##mal
aspekter
befolkningen
fasta
forekommande
general
hjalpte
inser
mangd
markning
motet
rakna
rapporter
samrad
spar
tekniskt
##foretag
##ron
andas
anpassa
ansvaret
beredda
gransoverskridande
kroppen
overstiger
rumanien
##los
##slag
engelska
eventuellt
fart
funktionssatt
gentemot
insulin
javel
lade
minut
overensstammelse
sjukdom
sticka
talade
ungdomar
##gg
##lse
aga
alska
amne
lamnats
meter
politiskt
riktning
verklig
##dan
##lad
39
begara
byran
cirka
drom
ecu
forandring
forlorar
litar
majoritet
max
myndighet
nanstans
offentliggjorts
privat
svarar
underbart
ursprungliga
utgora
##per
danmark
fullstandig
hjartat
informera
maskiner
meningen
metod
minskning
planen
valet
##elsen
##kor
##rd
##ul
41
dan
ekonomi
hanger
jordbruksprodukter
paris
skojar
valkomna
##ism
##rn
##ss
belgien
konventionen
plotsligt
##ly
##ort
allmanheten
antogs
arade
befogenheter
dagligen
fest
forstatt
gatan
lyckats
narheten
platsen
stad
teknisk
traffat
uppratta
##ag
##gas
##radet
##stid
##yn
agg
andamal
anvande
anvant
bestamt
grundforordningen
havet
larde
medlem
nagonstans
namnda
pojken
rorlighet
talet
valjer
velat
##kten
##visa
alfa
arbetstagare
betraktas
brittiska
definitionen
definitivt
detsamma
fina
grunden
riktar
uppstar
##isera
##nden
##od
##satgarder
##tan
##th
44
ak
bestammer
chansen
fader
halften
importen
inforandet
informationen
josses
nojd
personen
positiv
sikt
tillracklig
tryck
utvardering
##bart
##ff
##mo
##verk
arbetstillfallen
bla
falla
glomt
hanvisning
innebara
jesus
konkurrens
kriterierna
lnte
oppet
raring
ren
snabbare
spelade
status
tjejer
undersoka
utfardat
##ard
##get
##hall
34
46
85
aktorer
anslag
arlig
daliga
fantastiskt
fbi
fisk
flickor
halv
lunch
morse
tolv
upptagen
varsta
##tid
42
administrering
brev
faktiska
farbror
forstas
forsvinner
helhet
klass
lana
losningar
platser
projektet
solidaritet
sonder
svaret
uttryck
##brott
##ernas
##its
##savtal
##sten
##ud
49
amnet
andel
band
budskap
forbattring
forekommer
formodligen
forsvann
gillade
godkants
grattis
hungrig
james
konkurrensen
korde
lattare
skjut
toppmotet
tycks
##ett
##go
##ti
01
aktiv
aktiva
beaktas
beslutat
dodat
duktig
gransen
innehallande
kallat
relevant
resolutionen
stopp
tillverkning
tjejen
verksamma
##cken
##ks
##rande
##ue
allvarlig
bestamma
daremot
darifran
deltar
erbjuda
fodd
globala
kand
kinesiska
konkreta
patienterna
sangen
uppnas
utarbeta
vakna
##cker
##ic
##op
##tade
akt
avsikt
beredd
eld
erfarenhet
fordel
funktion
listan
ordna
post
process
rekommenderas
samarbeta
stang
uttrycka
varden
##ber
##dom
##nie
##program
##ror
##terna
55
anger
besok
farliga
indien
italienska
monster
namns
pass
processen
rader
togs
traffar
typen
vackert
varenda
##ant
##dd
##gora
##sprocessen
##฀
bidrar
byta
dagens
dna
effektiva
faktorer
institutionerna
kansla
kapital
konsumenterna
kring
lovade
lycklig
meddela
overgripande
oversyn
rattslig
rekommendationer
saljer
storlek
tydlig
undersokningar
vackra
##hus
##ivt
##kande
##pe
##uren
##varde
antagits
aterigen
central
exporterande
forhandlingar
fortroende
historien
namnde
sidor
tjana
verkligt
##iker
##kter
1992
bedoma
beskrivs
erbjuder
euron
finland
godkanna
gronsaker
handelser
kombination
konsekvenser
nodvandig
omfattning
paminna
tankar
tillganglig
valde
vantat
vard
wto
##ir
##kade
##li
##mma
##vag
anlaggningar
anstrangningar
beskrivning
jattebra
kasta
krisen
lagenhet
luxemburg
mordare
namna
negativa
osterrike
pratat
standiga
svin
talas
tilltrade
transaktioner
vila
##vet
angivna
armen
beakta
former
inratta
javisst
langa
lyckades
martin
minsta
problemen
snacka
##avtalet
##behandling
##dde
##form
##han
##ian
##iner
##lighet
##met
##spolitiken
anledningen
bradskande
forebyggande
foreslagna
forman
glommer
gusp
hindra
nedsatt
priset
prov
sarah
skogen
sorts
tillampningsforeskrifter
utvecklas
##dda
##istiska
48
diskriminering
ers
forklaring
forvantar
ingenstans
irak
luktar
mary
medfor
militara
part
ram
sallsynta
spanska
tagits
tydligen
vann
verkan
verket
verksamheten
##ans
##by
##eln
##lost
##nummer
##sman
andringsforslagen
banken
betona
bok
foredragningslistan
handen
kategori
kommittens
latsas
london
pojkar
punkten
sektorer
tillfallet
tittade
upprattande
utbyte
##ket
##politiken
##sam
##tter
fattas
forbud
forsvara
forutsatt
garantier
godkanda
kung
medborgarnas
offentlig
papeka
priserna
sang
snygg
socker
tjanar
unge
##min
##nn
##orn
ansvariga
bilder
dumt
exportbidrag
falt
frun
genomsnittliga
givetvis
hellre
inflytande
mota
omrostning
snabb
stabilitet
styrka
tony
visas
##and
##im
##oren
##somradet
89
djupt
effekten
filmen
forstor
fragorna
hinner
interna
lagts
laste
ringt
soka
starkare
tillater
uppenbart
vanda
##dra
##ons
##sfragor
##staende
avgora
begransningar
definieras
doktor
elektroniska
formaga
grej
harry
javlar
jimmy
nad
papper
skamt
stilla
##ckt
##do
##gaende
##ney
##sforfarandet
##somrade
38
81
atgarden
euratom
fortecknas
gratulera
km
knappast
kvantiteter
ledare
los
ordentligt
overlamna
planerade
sjukdomar
sov
test
##alt
##ana
##kan
##kat
##ny
##ram
##tal
67
externa
forbindelserna
frukt
olycka
overforing
ryggen
slutade
slutsatsen
te
uttryckt
##elser
##gjort
##ick
##jor
##punkt
##rig
##somraden
##stallning
##vatten
alex
arter
avgifter
domare
fantastisk
fr
framgar
framsta
kapacitet
kommentarer
ledde
partnerskap
pojkvan
pulver
skyldighet
total
troligen
underbar
verksamheter
##ford
##glar
##ki
##lander
##ringen
##rt
##varden
affarer
afghanistan
begransad
bevara
bevisa
henry
lart
massor
plus
programmen
ray
regional
sjal
uppfyllda
uppmuntra
##ba
##band
##dar
##omraden
##ppa
##ps
1990
52
88
brister
clark
danny
dansa
diskussion
dott
dricker
drink
fordelar
hal
internationellt
israel
kultur
lager
manniskors
presidenten
prioriteringar
produkterna
rekommendation
roda
sallskap
snabba
snackar
stackars
tillfredsstallande
verktyg
##ades
##alen
##ida
##ningarna
##niva
##port
##savtalet
##tagande
78
begransa
bulgarien
dels
foljde
fysiska
harmed
jul
lokal
losningen
manaderna
normala
produktionen
skillnaden
slapper
sokande
stall
##eter
##md
##ress
##sstod
allmanhet
avs
forandras
hette
innehallet
kar
ledamoterna
liknar
meddelandet
minskar
narmaste
oga
overvaka
regelbundet
skyddet
starta
studie
tillfalligt
utga
uttalande
valt
##les
##tjanster
##ty
bank
bevilja
bordet
bruk
ca
effekterna
effektivitet
ekonomin
flyga
inledande
kommitte
kompletterande
landets
orsaka
standigt
stat
storbritannien
varmt
##grupp
##gt
avslutad
balans
behandlar
bjuda
brist
dagarna
desto
fanga
forresten
genomforts
huvudsakligen
make
minnas
orsak
overensstammer
overste
riktlinjerna
skriv
tacksam
tanken
trad
tvivel
valj
vitt
##bok
##em
##iken
##industrin
##jan
##ko
##problem
##rera
##vardet
61
anvants
art
bekrafta
erkanner
geografiska
instammer
intresserad
kontrolleras
koper
lage
passa
principerna
regel
richard
symtom
##000
##ms
##plan
##sverksamhet
##tiskt
##ung
##vagar
66
atagande
bilagorna
bilar
charles
egenskap
eur
granskning
halls
inforande
jordbruket
kunskap
mera
modell
ms
nivan
oppenhet
orden
overtygad
skalen
sot
strid
telefonen
tusentals
vagrar
##ara
##bel
##dning
##kel
##lle
##mat
##mp
##mpa
##pen
artiklar
boken
flickvan
forvantas
gissa
gravid
omradena
skar
skont
snyggt
speciell
tjansteman
tusen
vantade
vapnet
verka
vis
°c
##halt
##handel
##ringar
##syra
##tioner
##tiv
##val
150
beraknas
bl
finner
foljt
forsvinn
framgang
garanterar
godkannandet
hallet
jim
kampa
klassificering
konkurrenskraft
kontoret
nick
nivaer
officiellt
praktiskt
provning
skepp
spannmal
tidpunkt
##grupper
##sforfarande
##speriod
##vara
ansvarig
antagandet
behorighet
doser
handla
hemlighet
hundra
inverkan
reser
skett
soldater
tredjeland
tvinga
utova
vice
viktigare
##avtal
##bord
##kort
##kott
##samt
##tionen
51
bill
dumma
foretagets
framfora
fundera
ideer
inse
iran
jobbade
ljog
marknader
riskerar
ryska
stadgan
straff
upphavande
verkligheten
vit
##ea
##gga
##ius
##ov
##rer
##yra
ansiktet
ansvarar
anvandare
betalas
bett
diskuterar
ersatta
familjer
femte
forfogande
gjordes
grabbar
innovation
jamt
klarade
ljuset
noggrant
overleva
poang
robert
sara
skamtar
strategin
svarade
tyder
typgodkannande
undersokningsperioden
uppdraget
##be
##jning
##ller
##mt
##net
##ni
##tra
adjo
anbud
dolja
driver
fordonet
foresla
intyg
jordbrukspolitiken
konsumenter
kontrakt
kostar
medveten
ordnar
personligen
registrering
rena
samla
sanning
situationer
skador
standarder
styrelsen
tillatna
tull
ungern
upphora
utslapp
##cher
##dos
##gangen
##ligen
##no
##por
##skydd
##smedel
414
47
argument
beviljats
bob
finansieringen
foll
forbereda
forblir
forsakra
forsvinna
infrastruktur
ingaende
is
kommissionsledamoten
kyrkan
ltd
luft
omsesidigt
rapportera
sokanden
##ater
##ktor
##landet
##samma
##sforetag
06
62
77
afrika
anmalan
ansag
baby
bilden
cypern
dras
foder
fonden
forsiktigt
forvaltningen
kallt
knapp
kontakter
ljuga
medicin
natverk
ode
sannolikt
spridning
stallde
##atgarder
##del
##gi
##gruppen
##jen
##ologiska
02
1991
ara
arbetsordningen
avsett
diskussioner
driva
jake
jordbrukare
kunder
lagsta
larare
minskade
personuppgifter
samhalle
skadad
skillnader
sodra
taket
tillrackliga
uppenbarligen
utmaningar
utmarkta
##lagga
##liv
##prov
##sning
##sprincipen
400
avstand
begransas
bredvid
chuck
definition
fortsatte
harda
http
inrattandet
medlen
medvetna
nationellt
normal
nyckeln
presentera
rostar
slutliga
slutsatserna
stand
sysselsattningen
varning
##ah
##forhallanden
##git
##givning
##kad
##laget
##mannen
##skostnader
##ular
##van
1000
71
antagligen
college
fangelset
forflutna
glader
golvet
handelse
identifiera
inkomster
juridiska
krafter
kvantitet
marknaderna
praktiken
region
rom
samtidig
sjukhus
skola
skyddar
stycken
tillverkaren
tydliga
utforas
vand
##ak
##ationen
##eringen
##givande
##if
##istisk
##material
##sattning
##sniva
##verksamhet
##vning
##yr
05
allmanhetens
amy
bestaende
betalade
bryter
farg
gallde
gilla
godkannas
grejer
himlen
hjalte
japan
kulturella
lik
loser
mordade
morgonen
nederlandska
patienten
preliminara
rapporterats
rattvis
speciella
team
utfarda
##inna
##iteten
##js
##larna
##llt
##one
##red
##san
##wn
arligt
betalning
bryta
centralbanken
dok
droger
fangar
faststaller
flyger
gransvarden
helvetet
hjarnan
inblandad
langs
lider
luften
mordet
praxis
ro
sektor
skatt
spannande
tillampligt
titt
tvartom
tvekan
ty
utrymme
verkade
##ez
##fri
##ges
##lande
##lare
##ogen
##sperioden
##splan
##ull
##vagen
72
blodet
co
fonstret
forandrats
forbli
hanga
hindrar
iden
identitet
injektionsvatska
iso
offentliggoras
olja
oroar
personliga
position
regionerna
skiljer
skyldiga
tappade
vasentliga
##arnas
##bestammelser
##fa
##igheter
##laggning
##lon
##perioden
##rider
##rin
##riska
##tare
##varande
##vin
##ya
asikter
bat
bedomningen
billy
domstol
fann
fattigdom
galna
gomma
granska
karaktar
karl
klagomal
konstaterar
leka
maria
no
poliser
raknas
reformer
sjunga
skor
sprang
stack
stalls
strukturfonderna
tommy
trakigt
##bb
##cy
##dag
##fer
##gla
##gna
##gs
##llen
##stjanster
##ula
82
engagemang
gode
godta
guld
innehavaren
konsekvenserna
kosovo
kvinnorna
mangder
mata
narvaro
rackhall
siffror
skapade
skrivelse
strider
styra
upprattas
vikten
ytterst
##fordraget
##gan
##gare
##lning
##mor
##que
1234
arendet
automatiskt
betydligt
brot
chris
faststallda
finansieras
funnits
hard
huvudsakliga
innehavare
institutionella
jerry
kandes
kansliga
oral
ost
paminner
radsla
respekterar
skeppet
skrivit
springa
statistik
tillhandahaller
ukraina
washington
##50
##dagen
##gel
##ige
##ight
##ino
##losning
##nka
##rik
##ua
53
83
aterstar
avsedd
dyker
elektronisk
finansiera
godkant
indirekt
individuella
infors
kompromiss
kris
lett
meddelanden
numret
register
signal
sotnos
stanga
tidpunkten
upphov
utgangen
vaxa
##berg
##ckning
##est
##fragan
##huset
##iell
##ins
##ionella
##jande
##kraft
##laggningar
##marknaden
##satta
##ssa
##tes
##ystem
57
84
alkohol
bodde
evigt
faktor
foredrar
foreligger
forsiktighet
grekiska
helgen
hundar
koppla
manaden
offentliggors
offentligt
skapat
skyddas
slipper
tillampar
union
uppmarksamma
vaga
varna
##aler
##ben
##din
##far
##gift
##ierna
##lage
##nes
##rnas
##tur
64
79
aktivt
anna
apparater
atervanda
backa
betalningar
fakta
fardig
forslagen
grona
hantering
humor
integration
koll
landsbygdsutveckling
onskan
overvaga
personligt
raknar
respektera
rolig
savida
street
tidningen
traffades
uppratthalla
will
##fartyg
##fritt
##myndigheten
##oxid
##tera
03
amerika
astadkomma
baten
bocker
daribland
flexibilitet
foddes
forandra
froken
frukost
granserna
gumman
hallas
hoppades
inrattas
koncentrera
levde
lova
moten
negativt
normer
radsordforande
sammansattning
sekund
service
skuld
skyddade
snallt
tilldelas
uppmana
utfor
utvidgning
vander
##bs
##foring
##ikt
##jas
##kap
##minister
##over
##ppning
##sliga
##sprodukter
56
68
73
76
arbetat
beslutade
bjuder
dam
dator
direkta
domstolens
drabbas
eftermiddag
england
floden
fokusera
forstod
frisk
fulla
genetiskt
genomforandeforordning
global
gratulerar
hallit
industrin
installning
it
kammare
kanda
kungen
lagret
loper
onda
oron
regeringar
regionkommitten
scott
smor
socialt
struktur
summan
upprepa
utfors
utvecklingslanderna
vanligen
vanligtvis
##ast
##bolag
##cia
##fors
##fraga
##haller
##krav
##nande
##politiska
##riga
##sprogrammet
##ssektorn
##tad
##vard
58
63
86
arende
artikeln
atit
bak
bipacksedel
daniel
exponering
farfar
forordningar
forskare
galet
halsen
halva
hustru
island
lon
missade
mojlig
monetara
narmar
nervos
ordningen
pastar
potentiella
producenter
registrerade
rostat
skitsnack
skott
slakt
slovakien
terrorism
tillsyn
underhall
utnyttjande
vetat
##bo
##che
##cket
##dad
##di
##dling
##ena
##eri
##fora
##former
##ho
##iserad
##kningar
##lie
##onen
##ros
##stad
##vikt
anbudsinfordran
antagande
bandet
behorig
besvara
bobby
cancer
damen
elva
fattat
foreslas
gratis
hamnade
handling
ie
inleddes
insag
jane
klargora
kollade
makten
overraskning
radgivande
rattvist
salt
sergeant
stannade
steve
strategiska
styr
sysslar
tacker
thomas
ting
to
traditionella
uttryckligen
vaggen
##erats
##fi
##her
##ial
##istiskt
##nna
##pel
##ppar
##uppgifter
applader
beteende
betraffar
bit
city
claire
darigenom
dl
drift
enorma
farlig
forluster
forsaljningen
haftigt
jose
kategorier
korta
lakemedlet
logn
natet
olagligt
pagaende
skadade
springer
strecksatsen
suger
tider
utrikes
viii
##10
##das
##ert
##forfarandet
##holl
##ice
##ill
##nga
##rey
##slos
##verket
09
74
andre
anslutningen
begransade
berakningen
domen
dorr
drommar
finansiellt
flyttar
fordrag
fornybara
gommer
grundas
hanvisningar
hjarna
hotar
killarna
komponenter
konstitutionen
kronisk
kusin
le
multilaterala
oerhort
ordforandeskap
ovannamnda
ramprogrammet
roster
sanda
soldat
tusan
umgas
understryka
uttalanden
vunnit
##ang
##chen
##ek
##ity
##kare
##kin
##ktion
##livet
##ln
##nan
##omrade
##rats
##sjukdom
##ulation
120
alias
allra
baserat
benen
betalt
eddie
erfarenheter
faststallt
forstarka
forvanad
fylla
hamna
harligt
hemsk
hiv
ifall
ifred
inhemska
inrattande
klokt
kopt
mandag
maten
negativ
pistolen
planerar
portugisiska
radio
rattsligt
rika
rod
skapas
skratta
skulder
solen
spelet
syns
varderingar
##ack
##anter
##barhet
##bil
##fibrer
##gard
##gick
##ifran
##lingar
##lingen
##llar
##mon
##po
##snummer
##una
##za
59
anmala
anpassning
befolkning
behandlade
berakning
bransle
djuren
egendom
enhetlig
foretagens
graviditet
grejen
harmonisering
herren
konkret
latit
marker
match
mellanostern
minne
passagerare
pistol
relation
rik
sjunde
skrammer
staternas
svag
tander
upprord
utgifterna
vasentligt
walter
##age
##ald
##andet
##arbete
##ay
##ee
##ffa
##fin
##ljus
##med
##mmar
##ord
##sade
##sats
##smetoder
##sokt
##sor
##stiden
##tte
##visning
250
andrar
avslutningsvis
bearbetade
besluten
betydelsen
blandning
centrum
detaljer
enkel
ensamma
fattiga
foras
forvantade
gas
glada
godkandes
grata
hejsan
intraffar
javligt
langst
leverans
ljud
lydelse
mordaren
motorfordon
nationernas
paket
patient
resan
salde
spruta
stadga
statistiska
svenska
tablett
transporter
##aten
##iter
##lem
##nska
##osa
##sh
##srapport
##yer
bearbetning
demokratin
ed
enheten
erhalla
existerar
farval
forbattringar
foreslagit
forestalla
forvag
fot
gava
hast
hotellet
hypoglykemi
id
insyn
irbesartan
kommunikation
konsumenten
malta
mormor
naturliga
notkreatur
ovre
placebo
planerat
regeringarna
road
ryan
sakta
sammanhallning
sammanhanget
sanktioner
separat
sjatte
skriftliga
stallt
stil
tillhandahalls
tjeckien
trygghet
version
www
yngre
##ach
##ationer
##ern
##ham
##ira
##ok
##olja
##ppen
##produktion
##ral
##varor
accepterar
arm
bestamning
besviken
cas
experter
festen
flyttade
forhandla
forstorde
grat
grupperna
hoppar
injektion
institution
jakla
jean
knulla
koden
kol
kombinerade
kvinnors
legat
lofte
minskas
noje
oliver
paverkas
plikt
polska
rakning
reaktion
reaktioner
riskerna
samlas
skadar
stader
tidsfrist
tillfallen
tolkning
tycka
utfardas
utfardats
utsade
utskott
vii
##fonden
##garna
##ip
##massigt
##omen
##orter
##pan
##raden
##ria
##sregler
##typ
##utskottet
##vs
am
ansluta
arme
bristande
bristen
dialogen
efterfragan
fordragen
foreslog
fors
forstarkning
gladje
grundar
ihjal
jagar
justering
klassificeras
kravet
lura
mandat
manniskan
metoden
mil
minister
modifierade
moter
mottagit
norge
orsaken
oskyldig
overtyga
ppe
skatter
skickas
skitstovel
skjuts
skota
slagit
slutsats
stallas
sten
tillbaks
trada
upprepar
utforts
vaxer
vaxte
verkstallande
visserligen
yttersta
##20
##30
##anska
##bla
##cera
##cerad
##cks
##fen
##hallen
##ire
##ix
##nader
##nger
##ock
##organisationer
##projekt
##resa
##sbehandling
##sforfaranden
##ulering
##vor
54
agenda
arbetsmarknaden
avlagsna
begreppet
beloppet
beviljande
by
cm
darav
denne
diabetes
forbjudet
garanti
hotell
irlandska
jaga
jarn
javeln
johnny
kommissionaren
konflikter
laggs
mastare
matchen
media
middagen
mjolkprodukter
munnen
norra
noterar
parti
provningar
reformen
revisionsratten
sakna
sammantradet
skramde
tabellen
tillfalliga
uppfylls
uteslutande
vacka
valuta
varav
varorna
##bete
##boken
##ct
##fil
##frihet
##konventionen
##ktig
##mning
##naden
##nivaer
##orerna
##period
##q
##ration
##sel
##slig
103
800
agde
alan
allihopa
andy
apotekspersonal
arenden
atervander
dack
extremt
forde
forefaller
framstallning
gemenskapsniva
hastar
huden
innefattar
konstatera
latta
lee
litauen
mangfald
oacceptabelt
orsakade
perioder
perspektiv
rachel
ris
skoter
skulden
sokte
stanger
talan
tillhandahallande
utfardande
utvardera
varann
##ata
##belopp
##dig
##ein
##eriet
##ila
##ios
##isation
##kal
##kvalitet
##lda
##priset
##pt
##rang
##rarna
##sakerhet
##sas
##sutrustning
##torer
##up
##xt
2014
600
aktivitet
alternativet
anpassas
bestammelse
bjod
bolag
bry
byggde
dagliga
delas
femton
fiskeripolitiken
flygplan
folkhalsa
forebygga
forhallandet
forstort
fysisk
gemenskapsindustrin
grans
haret
hemska
ikrafttradande
insats
investerare
jord
kallor
kandidatlanderna
kla
lov
magi
mansklig
medfora
mitten
mun
narstaende
reg
relativt
rosa
sander
slovenien
slutat
tester
tunga
upptackte
utlandska
##det
##eringar
##fart
##gens
##inen
##kalla
##kommer
##kta
##lagen
##log
##mas
##programmet
##ratten
##rering
##rid
##rida
##sla
##stalld
##tag
##utrustning
##yst
69
begransning
betyda
bud
budgetaret
cia
danska
dokumentation
don
efterat
eventuell
fars
friska
havdar
hud
hunden
inblandade
inrattats
karleken
kemiska
klinisk
koket
konungariket
kopia
langd
livsmedelssakerhet
maximala
medlemsstats
natur
offentliggora
overenskommelser
rakar
samlade
skrika
sprida
st
start
stationen
stjala
stycke
svarare
testa
tillatet
tysta
ungar
utmaning
utvecklade
vakt
vidtagits
##amma
##bba
##bra
##enhet
##har
##ive
##jt
##processen
##tta
##ura
112
affar
agna
alltihop
alternativa
berattigade
bitti
carter
elektriska
faststalldes
fingeravtryck
fodelsedag
forhoppningsvis
fororeningar
framjar
framme
fullo
gradvis
harror
hittades
hoja
invandring
kamp
kate
kyle
kyss
lille
liter
lojtnant
medlemsstatens
mej
misslyckas
mobil
oftast
okande
operation
praktiska
present
ranta
red
sanka
skedde
skick
slippa
stig
stodberattigande
stranden
tokig
troende
tvingas
upphandling
vardepapper
vastra
vems
##71
##atisk
##cept
##ckar
##don
##drag
##fria
##fullt
##isationen
##jo
##lopp
##nder
##pade
##relaterade
##ressen
##rick
##rigt
##rl
##sad
##seende
##tog
##trar
##ug
##urs
##way
07
1989
avsta
behall
bortom
erbjod
farre
forlangning
fyller
gavs
generaldirektor
gmbh
godkand
handlade
hemligheter
inrikes
kop
marke
misstankt
mojliggora
operator
organismer
permanent
rimlig
rorde
rott
sammantrade
skiter
taxi
tilldelats
tomt
tvungna
utarbetandet
utnyttjas
utsatta
utsatts
volym
vuxen
##19
##atser
##full
##landerna
##linjen
##ngen
##rit
##rium
##smarknaden
##ungen
##utbildning
##vad
a5
afrikanska
arbetsmarknadens
as
atfoljas
behandlades
berlin
bilaterala
bnp
brost
dubbla
estland
eurostat
fira
foda
foljs
forekomsten
forfattningar
forvaltningskommitten
frekvens
gisslan
hamnd
heliga
industri
invandningar
kamera
karriar
katt
komplicerat
konstitutionella
kroatien
lakaren
lidande
lord
lost
lucy
lustigt
lyfta
mans
markt
morgan
officiell
omsattning
plast
potential
regelverk
saja
schweiz
serbien
skalet
slappte
stryk
talare
torsdag
upphor
varan
varifran
verk
vinst
μg
##au
##drar
##field
##foras
##fort
##gning
##hallande
##ica
##ii
##jol
##ktet
##lagt
##mn
##oner
##protokollet
##rona
##rutan
##sig
##skar
##smyndigheten
##stand
##vapen
##vas
##vt
balkan
baren
bekraftar
dave
dosering
effektivare
eh
eric
fiender
forlust
fruktar
godkande
halso
hoppade
inforlivas
invanare
jackson
japp
juridisk
kameran
kastar
kommentar
konst
konsumenternas
kontrollerade
kraftigt
lagring
leker
markligt
mexiko
omstandigheterna
oppnade
organisationerna
parten
perfekta
preliminar
ra
rakade
sagts
serie
skadliga
slutlig
snuten
sommaren
standard
strasbourg
tillfallig
tillverkarna
toaletten
tvatta
undrade
ungarna
varm
vaskan
wow
##90
##ativ
##betankandet
##gande
##gangar
##gie
##ies
##jur
##kig
##kostnader
##nda
##nivan
##ordning
##plats
##punkter
##risk
##splats
##taget
agenter
anlaggning
arthur
avdelningen
dejt
detalj
detaljerade
dumpade
dumpning
elden
energikallor
enkla
es
euf
feber
filmdragerade
forbattras
forfarandena
forutsattningar
fredag
genomfor
hemliga
herrn
infektioner
infordes
inlagg
jamforelse
kampar
klient
kroppar
kvaliteten
ledande
ledig
leverfunktion
loften
lyssnade
major
maximal
overlever
pakistan
pappas
raka
representant
sjalvmord
skara
skjuten
stabil
storningar
strategier
traff
yrkesutbildning
##all
##art
##attning
##ckor
##dja
##falt
##forts
##friheten
##fta
##gger
##given
##ismen
##istens
##ith
##klaga
##lats
##lut
##marken
##ona
##ong
##slaget
##uta
##verade
##yle
aktier
ande
anvisningar
arets
avsevart
avskyr
bedriver
betonar
bibehalla
bidraget
botten
bussen
byter
dej
diskussionen
drojsmal
emma
enklare
exporteras
fas
finansiell
flyktingar
fonster
formagan
forpackning
forse
fortsattningen
fungerade
generellt
godkanner
godkanns
hammare
havdade
hepatit
infektion
initiativet
injektionsflaska
jenny
kevin
konstig
konvention
ledamoten
likadant
medborgerliga
minnen
missar
mod
oskyldiga
paketet
pl
raddar
reform
representanten
respekteras
samarbetsomradet
sammanlagda
signifikant
smak
smakar
subkutan
tak
tjanare
tjena
utkast
utse
vaxtskyddsmedel
veckorna
##01
##23
##aga
##atiska
##ci
##iering
##lja
##nis
##niska
##organ
##ost
##pi
##sbelopp
##sindustrin
##skommitten
##tning
##unna
##vandning
##verkan
##visar
administreringssatt
agerande
andan
andelen
annanstans
anne
bekant
beskriva
besoka
bestand
blommor
bollen
bord
brasilien
brattom
dragit
farskt
fartyget
faster
figur
filer
forfylld
foto
fotter
frammande
garanteras
gibbs
inriktning
institut
knappen
konferensen
koppling
lisa
mage
manuel
mesta
missa
mmol
namnt
okand
olagliga
olyckor
ovanstaende
paverkan
personlig
phil
professor
representerar
rikta
samarbetar
sjukdomen
skolor
snut
specifikt
spelat
stamma
systemen
tillat
tillhorande
tuff
utgar
utnyttjar
veterinarmedicinska
##atts
##beslut
##cerat
##ergi
##ev
##forfarande
##gat
##ift
##ima
##juka
##karna
##line
##mid
##ow
##personal
##riktad
##riven
##rmen
##sie
##so
##tein
##tiden
##urt
##vardig
##wood
##xi
##ystemet
##zon
##°
1987
2020
299
adam
aktenskap
alice
anfall
ansvara
arbetade
arbetslosheten
avslutas
bedriva
befogenhet
begarde
bekraftas
bog
bosnien
brand
demokratiskt
dokumentet
elak
enorm
erbjudande
et
flygplatsen
fruktansvart
gifte
gron
halvtimme
high
imponerande
joey
kontrollerar
kritik
kvalificerad
livsmedelskedjan
lust
lyder
makedonien
modellen
mojligheterna
nasan
obligatoriska
offren
omstrukturering
onska
oversynen
panik
partier
registret
sadar
sakerhets
sheriffen
sjuka
smartan
sota
specifik
standpunkten
struntar
suspension
tappat
tjejerna
tvingar
upphandlande
uppmanas
vast
vetenskapligt
vilda
##17
##ader
##amt
##atta
##bi
##branschen
##bud
##can
##ckade
##ction
##dare
##gav
##halls
##ider
##ierade
##jon
##kiga
##kommitten
##led
##lett
##lj
##omi
##opp
##svis
##tro
##tten
04
angel
anvandes
bekymmer
betankanden
brollop
drag
emily
faglar
faltet
foljas
folkets
forklaringar
forstaelse
framjande
frukter
gordon
hemligt
inforts
insamling
instruktioner
jaklar
jason
katastrof
klubben
kronor
kvarstar
ledningen
lettland
lex
lily
lyckliga
mammas
militar
mordad
naturligt
natverket
njurfunktion
objekt
okningen
operativa
overfora
overstiga
pete
rattsakter
roka
sakerna
sallan
sallsynt
scenen
seger
skadeundersokningsperioden
skallen
skickat
skilja
sparken
sur
sydafrika
symptom
tappa
tidsfristen
tillvaxten
tjansten
vaken
vasentlig
verklighet
vitryssland
##14
##58
##99
##ano
##bin
##biska
##bunden
##forsorjning
##garden
##glas
##gorande
##hallet
##hi
##ledare
##lf
##nter
##oo
##pat
##pin
##rol
##smannen
##sstrategi
##uga
##ullen
##vardigt
##vention
akut
avslutar
avtalsslutande
bas
basis
begart
bekampning
beredning
brian
budgetar
byggnaden
chloe
datorn
enormt
etc
flaska
forbjuda
forsiktiga
fullstandiga
garden
genomfordes
genomfort
grace
hundratals
ix
kemikalier
klarat
kon
korrekta
kostnaden
kunskaper
larry
maggie
morda
muntliga
mynt
noll
numera
nycklarna
orsakar
palestinska
partiet
pension
producera
pund
representativa
saknade
sakrare
samre
samtalet
sjalvt
skriker
snarast
strikt
svard
ted
terrorismen
tillagga
tillgangen
tillstandet
tim
trovardighet
uppvisar
utgangspunkt
varda
vetenskaplig
##02
##av
##byggnad
##cs
##delning
##faller
##fe
##forslag
##gatt
##heim
##igande
##int
##ionell
##jd
##karen
##kom
##lista
##mel
##mes
##namn
##personer
##ratta
##rika
##satser
##sken
##skontroll
##skor
##sorgan
##ubbe
##uella
##villkor
##visade
agerar
anslagen
barroso
baseras
bidragit
blandningar
bolaget
definiera
deltagare
doma
drottning
fardiga
faststallandet
fett
fil
flytande
forenligt
format
forpackningen
forsiktighetsatgarder
forsvar
fortare
forvirrad
friheten
frivilligt
frukta
gamle
gatorna
intravenos
javlas
kanslig
krossa
ledning
letade
letat
lissabonstrategin
marocko
mediciner
medlemskap
motsatter
offret
overlevde
overskrider
parlamentsledamoter
press
referens
registreras
reglering
rekommenderade
res
samhallen
sparka
stada
tillatas
tillnarmning
tonfisk
tron
vagledning
vatska
##12
##31
##bie
##ckan
##dags
##dring
##eka
##ess
##gh
##hal
##ich
##iserat
##kant
##komst
##marke
##metoder
##nne
##oder
##okning
##priser
##rom
##rus
##ruten
##sinstrument
##slagen
##staller
##stans
##ux
##vo
##yd
affaren
aj
allas
amerikansk
andringsforslaget
anlaggningen
asien
bekraftade
besta
blind
brottslighet
brutit
choklad
cool
direktiven
doende
duger
egypten
element
emea
enhetliga
forbehall
forlater
gifter
grader
hejda
hjalpen
hjalpt
hjartan
hojd
hornet
inleds
invandrare
investera
jamie
jamstalldhet
kanada
kelly
kompisar
kopior
kopp
kvinnliga
ladan
landsbygdens
lek
leksaker
leverantorer
lysande
mangden
marina
marknadens
metall
miles
namner
olanzapin
oppnas
overvakningen
patryckningar
personalen
placeras
poangen
respekten
sammanfattning
sean
sis
uppgiften
uppnatts
uppsta
upptagna
uttala
utvarderingen
vaknar
valutan
vilar
virus
##82
##ai
##ator
##bild
##blad
##dande
##dis
##diska
##ex
##fallet
##farten
##ginal
##handeln
##ings
##je
##klar
##ktionen
##listan
##mmen
##pet
##rak
##rerade
##roll
##skostnaderna
##skrav
##sprojekt
##tagning
##takt
##terade
##tiva
##tjansten
##uktion
##ure
##utveckling
##vaxter
08
101
agnar
allergisk
anmarkning
arbetstagarna
banker
beslutar
beter
brett
celler
deltog
destruktion
drabbade
eib
examen
flagg
flickorna
foretrader
forlata
frivilliga
funktioner
gary
gemenskaperna
grabb
grav
grava
grunder
inbjudan
intakter
intill
intraffade
inuti
justeringar
konstiga
kurs
landa
lokalt
luke
manniskans
mikrogram
modern
motor
muhammad
nojda
norr
osteuropa
otrolig
ovanligt
paus
politiker
prioritet
prover
riskera
saknat
sena
simon
sistone
slutgiltiga
statens
stoppar
testet
tullmyndigheterna
tung
tvivlar
ungen
west
william
##51
##burg
##dlig
##gade
##ide
##iellt
##isten
##iven
##jobb
##juk
##kna
##kontroll
##kord
##lot
##nk
##nsk
##ola
##ox
##punkten
##rop
##saker
##sering
##skan
##sm
##sprocess
##stallt
##svar
##tin
##uell
##unden
##vade
##vaxling
##vd
##volym
##well
aktorerna
aratal
assistent
avtalen
darute
diskussionerna
dodsfall
drommer
druckit
efterfoljande
enskilt
fagel
fantastiska
farska
forenkla
forsvarar
forvantningar
france
garn
gubben
handelserna
hannah
howard
huvudvark
illamaende
ingick
kilometer
kommersiella
konflikten
kontraktet
laura
levereras
licenser
likasa
manen
medelhavsomradet
miljontals
morkret
noteras
oknen
olaglig
ond
onskemal
packa
preparat
resolutionsforslag
right
samordna
satsa
skapandet
skilda
slappna
slutandan
sorja
tillverkas
uppfor
upprepade
utredningen
vardighet
vaxter
vegas
yttra
##07
##11
##alitet
##atorer
##avir
##cin
##cus
##digt
##eni
##etin
##foljande
##foljer
##iella
##juta
##key
##ktiga
##ligheten
##lsen
##mm
##mmande
##ologi
##oning
##ordningar
##rakning
##risen
##sdokument
##sion
##splatsen
##sratt
##ssar
##stallda
##stallningen
##tagen
##trada
##ub
##uss
##verna
##ville
##vit
##°c
andrades
ansprak
arbetsordning
avbryta
baste
bedragerier
befalhavare
begransat
behovt
bevarande
black
com
delegation
di
djup
djurhalsa
ende
expert
fiende
foljder
fond
fordelning
formella
formellt
fotboll
funderat
godnatt
grannar
grater
hanteras
intressanta
intresserade
kollegor
kula
lamnades
landernas
langsamt
levt
lissabonfordraget
loss
lyft
maskin
medge
medicinska
minskat
misstankta
narkotika
nato
naturen
oecd
ogat
ogonblicket
operationen
overgang
pse
regeringens
roger
rorelse
sar
sheriff
skrattar
sno
spp
susan
svaga
tjugo
traden
traffats
uppfyllas
uppgar
uppgick
uppnar
utslappen
vaska
vietnam
##ap
##celler
##ces
##hen
##ju
##karl
##kas
##klorid
##ledningen
##pas
##rater
##rens
##rerna
##rog
##rot
##sattningen
##sbeslut
##sbevis
##sch
##sforslag
##si
##spel
##spriset
##stalls
##suppgifter
##togs
##uel
##ult
##upp
##urer
##vakning
##xa
##ze
albanien
anar
andrats
anforande
angra
anstalld
arbetsloshet
aterbetalning
avskaffa
bekraftat
bipacksedeln
blodtryck
bomb
budgetplanen
centralbankens
coolt
demokratisk
drack
enighet
euroomradet
exporten
fasen
fiskar
foraren
foreskriver
formular
forpackningar
forvanta
fragat
fysiskt
givit
gjorda
hogra
human
importeras
info
integrering
jobbigt
kare
kde
kgm
kim
kladerna
kna
komplettera
kraftig
kritiska
kvantitativa
kvoter
kyssa
ladda
lakemedelsform
leo
loner
lordag
majoriteten
ministerradet
minoriteter
morfar
nomenklaturen
nyckel
nyfiken
oskadd
ostra
papekade
park
reagera
regleringsaret
ringen
rorligheten
sanna
schablonvarden
skala
skillnaderna
skrap
slogs
startade
stimulera
stolthet
storleken
studenter
subsidiaritetsprincipen
summa
syften
tagen
tand
tillvagagangssatt
trafik
trana
transporten
tungt
turism
uppskatta
utovar
utredning
utslag
vagra
vaknade
vapnen
##16
##18
##abel
##ane
##aret
##ars
##bas
##behandlade
##centrum
##cke
##delar
##disk
##erare
##erska
##gon
##gripa
##halla
##hantering
##ista
##just
##kapital
##ky
##lagda
##langd
##my
##nta
##ont
##produkt
##res
##sfraga
##skapet
##smetod
##sorganet
##sskydd
##tlig
##tryck
##ulera
##urk
##utslapp
##ynamiska
##ytt
amsterdamfordraget
analysera
angrar
ansvarsfrihet
aran
avkastning
barry
begravning
brinner
dagordningen
definitioner
delarna
direktor
dodades
dubbelt
enhalligt
flyg
foretags
forstainstansratten
gemenskapsindustrins
godkannanden
gruppens
halt
ingripa
insisterar
inspektor
jamfora
jones
jugoslaviska
julie
kanslan
king
kniv
kolumn
konsekvent
kontakten
lady
landsbygden
larande
latinamerika
likhet
lognare
lojligt
louis
maltid
medger
mekanismer
misstanker
motstand
mottagare
notkott
ombudsmannen
organet
parken
passerar
perifera
pizza
premiarminister
prins
regleras
robin
roy
rubriken
samvete
scen
sjon
sjunger
soder
stallen
startar
stravan
studierna
taylor
tekniken
tillgangligt
underbara
undersoker
undertecknat
utbildningen
utkastet
utmaningen
utvidga
varme
vinden
winthrop
##29
##60
##behov
##bler
##chef
##cky
##diga
##dt
##foll
##formen
##ften
##givna
##hem
##igheten
##information
##ionellt
##iseras
##iseringen
##kand
##konferensen
##ledning
##mnen
##otter
##rack
##radets
##repp
##resurser
##rice
##rivning
##set
##skal
##skott
##smaterial
##som
##sreglerna
##standig
##trade
##ugga
##а
111
130
1980
akter
andringen
anknytning
avgift
b5
besokte
bestamda
betonas
bomull
brydde
bse
dans
dartill
direktoren
diskuteras
drick
drivs
exkl
experiment
farmor
flerariga
flog
forandrar
forenlig
formaner
forskningen
forvarv
fotterna
fruktan
fryser
fy
genomgatt
go
granskningen
hann
inletts
interaktioner
jackie
kliniskt
klok
korkort
kravas
langsiktiga
ledigt
ligg
medlemslanderna
modeller
myndigheternas
naken
nationerna
overtradelse
pasta
presentation
regeringskonferensen
relationer
resor
restriktioner
resurserna
rimligt
rita
roliga
rygg
satan
satts
semester
skriftligen
stangt
stiga
still
store
strukturella
strukturer
suttit
talamod
territorier
tillaten
trycka
trygg
tvingade
underskott
uppnatt
utslappsratter
uttryckte
utvidgas
vidtar
viset
vision
vittnen
##amnen
##dade
##ec
##een
##ement
##erades
##erier
##foder
##fulla
##had
##iar
##ias
##ificerade
##issa
##ition
##ivitet
##kapet
##laggningen
##lm
##mpel
##nings
##sarbete
##sfullt
##sigt
##sjuka
##skador
##smassiga
##sstallet
##svillkoren
##tillstand
##ual
##ulara
##umma
##vandlas
##vir
1988
abby
aktivera
bananer
behandlats
berg
beteckningen
borda
braka
bytte
carl
certifikat
dansar
des
djavulen
dodad
donna
enskild
fallen
fax
fiskefartyg
flottan
forbannade
fordringar
forekommit
foreningar
foreskriva
forklarat
gammalt
giltig
godis
granne
hanvisar
importorer
inblandning
indikatorer
infort
installningar
integrerad
integrerade
integritet
kommendor
konstaterade
konto
lades
likadana
linda
linjen
lyssnat
m2
manskligheten
medellang
mirakel
misstankte
monsieur
mottagande
nl
nyheterna
odet
omedelbar
onskade
orkar
orsaker
osv
overenskommelsen
overvagas
parlamenten
posten
pressen
pvc
raknat
rapportering
redskap
ribavirin
ritonavir
sannerligen
show
siffrorna
sinne
skaffar
skaka
skrammande
smith
sondag
stallts
studien
svek
tekniker
tillatelse
tomma
transeuropeiska
tufft
typiskt
uppat
upphava
uppriktigt
uppstatt
vagrade
valstand
versionen
vilse
vincent
webbplats
ytan
##13
##aktiga
##ban
##bbar
##cha
##chefen
##derna
##ep
##faktorer
##ffer
##forbud
##foretaget
##iger
##ini
##isationer
##itativ
##kanska
##kiska
##kop
##lagd
##lder
##lene
##lis
##ltar
##lyser
##mans
##massiga
##mission
##motet
##nelse
##nya
##oja
##reglerna
##rm
##sbestammelser
##schef
##sdagen
##sikt
##slosa
##snitt
##stationen
##tig
##uk
##visas
##wen
##ym
##zo
agt
amsterdam
andringarna
angeles
animaliskt
anmarkningar
avdrag
baksidan
barns
bergen
betalat
bista
bloder
brak
brevet
carrie
davis
dominerande
dosjustering
eva
filmer
fo
forbannad
forste
forum
forutsatter
forverkliga
forvirring
gemenskapslagstiftningen
gemenskapsratten
genomsnitt
gront
hallbarhet
hamnas
hanvisas
het
historier
huvudsak
hyra
idioter
inbegripa
individer
inkludera
interferon
interinstitutionella
jeff
kallan
kastade
klippa
koncentration
laxa
lidit
luftfartyg
mangfalden
maskinen
modig
morkt
musiken
namnts
norska
observerats
oftare
or
organiserade
ovanfor
overforingen
overgangen
pharma
plocka
polare
presenteras
producenterna
provet
rapporterade
religiosa
rock
rose
rykte
rymden
saluforing
samarbetsvilliga
sattas
separata
silver
spraket
sprit
stolen
stoppade
stranga
tappar
temperatur
termer
tidig
tjuv
tra
troligt
turkiska
undanroja
uppleva
uppstod
utgjorde
utseende
varvid
you
yta
##25
##40
##73
##alisering
##anvandning
##bat
##ffande
##finansiering
##flodet
##forsakring
##fte
##gad
##griper
##iden
##ivan
##kontoret
##ktorer
##lagg
##lika
##lys
##ministern
##oni
##papper
##platsen
##pning
##rakt
##regler
##ropp
##splanen
##svikt
##tjanst
##vart
##vel
##yrning
107
a4
aktiviteter
alskat
anemi
angar
antyder
arbetslosa
aspekt
aterkomma
avseendet
bedrivs
belgiska
bensin
berors
bilderna
cole
dennes
desperat
djupa
doc
drabbats
drottningen
eksg
eli
enstaka
etniska
flyttat
foljderna
forbattrad
fordelarna
foreliggande
forena
foton
funderar
fungerande
generationer
hank
horn
industriella
innehar
integrationen
international
jess
klicka
kollat
kolvaten
kommentera
kors
kvot
lagligt
lurade
madrid
malsattningar
mardrom
minnet
minskad
moses
nord
okas
omsesidiga
ordforandeskapets
patrick
php
pojkarna
pt
ravaror
resolutioner
rullar
sammanhangande
sandas
sann
sexig
skrek
slapps
slutfora
sms
tarningar
texas
tisdag
tradition
trick
undvikas
universum
upplevt
uppmanade
utforma
vande
varat
vidtagit
##15
##47
##aine
##bilen
##cca
##cklig
##data
##dens
##eil
##faltet
##fordon
##forklaring
##hog
##hor
##isen
##istik
##iten
##jar
##ji
##kod
##komma
##name
##omer
##ppade
##provning
##rett
##sbara
##sfordraget
##smal
##splaner
##sson
##sstaten
##station
##stillstand
##styp
##tagare
##tagna
##tik
##tis
##uera
##ui
##vagnar
##vare
##wa
adressen
analyser
anden
andrew
anordningar
anvandningsomraden
arbetstagarnas
aterspeglar
aterstaende
befria
benet
besatt
big
biologiska
biverkningarna
blad
blister
bortsett
byn
champagne
detaljerad
dimension
distribution
domer
dyrt
emellan
exakta
falska
farhagor
felaktig
forbereder
fordelningen
forlangas
forneka
fornybar
forvaltas
forvaringsanvisningar
frivillig
halsar
handlingsplanen
hat
hey
hjalpamnen
hors
importlicenser
informeras
integrera
jordbrukarna
kaft
kallaren
klocka
konton
kontrollsystem
kylskap
livs
ljudet
lucas
magen
medborgarskap
meddelar
meddelas
miljoskydd
missbruk
motorer
nancy
njuta
noggrann
orsakat
pekar
penny
racka
reglera
rubrik
samordningen
sexuella
skadat
skramma
smaka
sprider
steget
stods
stott
tidsfrister
tradde
tullar
underligt
undra
upptackt
ursprungligen
utarbetats
utskottets
uttrycker
vittne
yttranden
##03
##05
##42
##65
##66
##aden
##arens
##aste
##atte
##bbie
##betalning
##boll
##boratorium
##brist
##ckningen
##datum
##esi
##eten
##fardiga
##givningen
##iler
##innan
##iserar
##itch
##iteter
##kningen
##kologiska
##kontor
##lagare
##lakare
##lek
##lls
##lock
##matiska
##mitte
##ngar
##och
##ora
##ous
##paket
##ppad
##rep
##ridning
##rok
##sakerheten
##satsen
##sbruk
##shinder
##sida
##skraven
##staden
##tner
##uf
##uy
##vationer
##vi
##vilja
##yp
106
1784
agaren
aids
anvandarna
apa
armar
associerade
avsloja
befrielse
begransar
behallare
beteckning
blandade
bomben
branner
branschen
brollopet
bron
brown
byrans
byxor
casey
cell
chmp
databasen
delade
dubbel
efsa
elektrisk
elektroniskt
epoetin
europeer
fastan
filma
fingrar
fordonets
foreslagits
forhallandena
fornekar
forsedda
forsvunnen
forvisso
funnit
geni
grand
halsan
hardare
havda
hjul
holls
ignorera
incitament
infrastrukturen
inkop
jamforbara
johnson
kalifornien
katter
kilo
klanning
kollektiva
kommissarie
konflikt
korruption
kortet
labbet
lada
lopande
losas
majs
manual
marie
marknadsandel
markningen
medelhavet
medlemsstaters
minus
missat
miste
moderna
myndighetens
nas
observerades
oroliga
orsakerna
oskuld
overgangsperiod
oversikt
overtygade
ph
placera
planeten
porten
positioner
prast
prinsessan
processer
rapporterades
reklam
rekommenderar
saint
samling
sanofi
seriost
soner
sovit
spoke
stjarna
storst
tacksamhet
tillbringa
tillsats
tysk
uppdateras
uppfoljning
utformning
utgang
utvecklar
vaningen
vannen
varierar
vederborlig
whisky
##24
##72
##aget
##alia
##arder
##baserade
##bert
##bjuden
##center
##cis
##ckte
##emi
##fisk
##floden
##forsaljning
##forsok
##gd
##imal
##iral
##isterna
##itionen
##jalp
##janst
##jarna
##judit
##kligt
##ktorn
##liska
##llning
##mang
##mmer
##nal
##naren
##ngd
##oarna
##polis
##rattigheter
##ricka
##ruta
##sande
##sordning
##ssats
##stil
##sy
##tanke
##ther
##tus
##uten
##vande
##verad
##xor
##zy
113
136
1985
aktuell
ammunition
anm
annie
australien
avbrytas
avreglering
avslutat
bedomas
bekampningsmedel
bekraftelse
besvikelse
beteckningar
beviljat
burma
byggnad
byggnader
byt
cent
chicago
djupare
dorrarna
ec
ekologiska
etablerade
europol
fattigdomen
firar
flygplatser
ford
forordningarna
framgangsrik
framstalls
fredsprocessen
funktionen
gissar
glass
gripa
hallbart
hanteringen
hotet
importerade
inbegriper
inkluderar
int
intag
jordbruksmarknaderna
joseph
kompensation
kompensera
kompletteras
koncentrationen
konferens
konstant
konstruerade
konsumentskydd
kontanter
kuk
lacker
leonard
me
misslyckades
motte
nathan
nodvandigtvis
nycklar
overvakas
plasma
prioriterade
radande
radgivning
rattspraxis
regn
relaterade
rick
rimliga
roker
samforstand
samlar
sammanhallningsfonden
sexuellt
sjukt
skede
skickades
skyddsatgarder
sorg
sorgligt
sprutan
stats
stiger
stravar
studera
substanser
synpunkt
systrar
tail
tillampningsomrade
tillverkningen
transporteras
tydligare
universitet
utarbetas
utslappande
vanskap
varma
##ab
##andel
##arter
##azol
##banan
##cerade
##darna
##die
##essa
##eus
##faktor
##ffar
##funktion
##geln
##gors
##huvud
##idin
##imera
##ines
##ise
##istrarna
##licka
##loppet
##lyn
##mande
##mordare
##nnan
##ologisk
##parten
##planen
##produktionen
##provet
##ramen
##ressiva
##restanda
##rie
##rk
##sak
##sanlaggningar
##sformaga
##sinformation
##snormer
##spris
##sstat
##sstudier
##stat
##stra
##tand
##tyg
##uck
##udier
##ukt
##ummer
##urg
##ush
##vackande
##vagn
##vags
##vant
##vla
##win
##ye
121
125
138
220
350
354
5000
ambulans
amerikanerna
angiven
animaliska
anledningar
anvandaren
arbetsgivare
asyl
bakgrunden
beklagligt
besegra
bestamde
bitradande
blunda
boll
bon
budgetforordningen
c5
debatter
derek
diskuterat
doljer
domaren
dorrar
drabbar
etiska
fet
fokus
foraldrarna
forekom
forfattare
forklaringen
forlanga
forsvunnit
framstallningar
genomgar
gods
gomde
granskas
gravida
grupps
hastighet
indirekta
informationssamhallet
inspektion
instrumentet
intryck
intyget
jakt
jesse
julia
justeras
kann
karen
kniven
konstitution
konventet
korn
kraften
kristna
lands
langsiktig
lappar
logiskt
logner
lurar
madame
majestat
maximalt
medier
mekanism
menyn
molly
motsatsen
not
olyckan
paborjas
parlamentariska
partiklar
paskynda
pinsamt
planeras
planering
primara
producerar
randy
rasism
raymond
restaurangen
reste
ron
sahar
sakerligen
sammanlagt
sandningar
skarmen
spelare
statt
stjal
stodjer
styrkan
svaghet
sy
talmannen
terrorister
uh
uppfyllt
uppsattning
upptrader
ursaktar
utfort
utses
valda
varldsmarknaden
vete
vetenskap
victor
##45
##63
##92
##ager
##ain
##alde
##bank
##barn
##bben
##betare
##bildning
##bot
##boy
##bruk
##bundna
##byggnaden
##ceras
##ckat
##dat
##delningen
##direktivet
##djan
##dor
##eder
##ferens
##fonder
##fordran
##halten
##heterna
##hs
##idan
##ingarna
##ionerna
##ita
##kanen
##klader
##kler
##ktigt
##laning
##liggande
##litet
##lld
##mjolk
##nare
##nel
##nigt
##nker
##nten
##ojlig
##ore
##oss
##otta
##partiet
##piska
##pulver
##rivna
##saret
##sat
##sjon
##smyndighet
##torn
##trafik
##uation
##unt
##uppdrag
##utor
##utvecklingen
##vat
##vda
##ving
##ycka
10000
102
160
180
alltmer
anmalningar
antikroppar
armarna
bedoms
bega
begrepp
beskattning
beskriver
bruce
byte
carlos
clearance
cykel
dare
detaljerna
drommen
effektiviteten
energieffektivitet
erbjuds
erhallits
exportbidraget
fange
forare
forbered
foredragandens
forekomst
forklaras
forpliktelser
ful
fullgora
galning
generaldirektoratet
godtas
gris
gynna
hallning
harmoniserade
hatade
hav
hemland
historiska
humanitara
iakttas
immunitet
influensa
inlast
inledas
inslag
institutet
intresset
jugoslavien
kall
kannas
kemisk
knullar
ko
kvarter
lagras
langtar
lovat
malsattning
marka
markte
miami
modet
morka
motivering
motsats
nadde
nb
nordirland
osaker
osterrikiska
piller
profil
provningen
ran
ras
redigera
rekombinant
restriktiva
riktas
sammanfattningsvis
samtycke
school
sidorna
sikte
simma
skriftligt
sparar
staderna
state
strommen
strunta
substansen
sund
synvinkel
texterna
tilldelning
tillhandahallas
tratt
trygga
understryker
undertecknades
uppdelning
uppenbara
uppskattning
upptrada
varningar
visats
##35
##67
##76
##84
##akt
##alism
##atet
##balans
##bana
##besok
##bilitet
##blod
##budet
##cancer
##cie
##dera
##dern
##dokument
##dustri
##elt
##fattning
##fekt
##fel
##finna
##gjorda
##gra
##gy
##hn
##icitet
##ifierad
##instrument
##isar
##ismer
##jutning
##kes
##kins
##ligare
##llus
##lyst
##marknaderna
##matisk
##matiskt
##medlemsstaten
##mord
##ndes
##nnor
##nos
##ond
##ory
##ott
##pad
##ridge
##riktade
##ryck
##sgrupp
##sidan
##skapacitet
##snivan
##stall
##staterna
##stri
##svatten
##tande
##transporter
##ubba
##undet
##utiner
##varna
##vde
##vent
##vtal
##yla
104
105
adekvat
aklagaren
albert
amen
ansags
antibiotika
aterfinns
aterga
aterkommande
atlanten
auc
avsikter
avvikelse
behaller
behovas
berakna
bestamd
betonade
bevisar
bevisning
bildas
bin
bio
bitch
biten
blanda
borgmastare
bosatta
branslen
bravo
ciprofloxacin
darinne
diarre
dyka
erkanns
ersatter
europe
european
exp
fingrarna
flyr
forberedelserna
forpackningsstorlek
forsamling
framling
framstallts
frid
funka
gay
givet
grodor
grym
hals
handlingsplan
heta
hoghet
hoppet
hotade
humanitart
illegal
indonesien
informerade
ingangspriset
inkl
inrattades
israeliska
jordens
kartan
katie
kompetens
korridoren
kroppsvikt
leverera
lewis
lida
likt
likvardiga
lyckligt
manaders
misslyckats
mojligen
morbror
motverka
mul
naringslivet
nedskarningar
nervsystemet
nye
objektiva
omfattningen
prat
prioriteras
produceras
rackvidd
radioaktivt
rattegang
re
rekommendera
rollen
ryssarna
satsar
savitt
sjutton
snygga
spoken
strunt
syndrom
talang
tavla
terapeutiska
tillats
tillverka
tortyr
trotthet
up
urval
utbrott
utformningen
utomlands
utrikespolitik
utrustningen
utvalda
utvecklats
utvidgade
vagledande
valbefinnande
valen
varnar
villig
vinster
vitro
von
xi
##98
##agda
##alog
##baserad
##betalningar
##bit
##certifikat
##cho
##dam
##eal
##edlemmar
##eer
##etisk
##etiska
##evard
##film
##forande
##forbundet
##forda
##gummi
##his
##ikala
##ision
##klagade
##komna
##kretariat
##lagger
##ledamot
##leder
##mare
##massa
##mier
##nbar
##ndens
##oj
##ph
##position
##poster
##pris
##relaterad
##rina
##rivit
##rma
##rov
##rson
##sgrupper
##skatt
##smetoden
##sparingar
##stan
##svatska
##svillkor
##tarna
##tum
##turen
##tusentals
##ubbar
##ulationen
##vand
##vandla
##varda
##vetande
##viker
##vinna
##vnad
##xten
1968
2015
2b
318
700
ad
afton
amanda
angela
anropar
aspekterna
aterkalla
aterkommer
aterstalla
atervande
attackerade
aventis
avsaknad
balanserad
baserade
bayer
beaktar
beta
beth
beviljade
bitar
blair
boter
brud
byggt
centralbankerna
comb
cpa
dick
dodas
drojer
edward
ekonomier
exemplar
fardigt
faror
favorit
feta
forberedande
forradare
forsakrar
frysta
fullfolja
genomga
genomsnittlig
gentleman
gomt
gul
hamnen
hang
hanvisningen
harmonisera
hercegovina
house
identifiering
ifragasatta
imorse
innehav
insidan
jeremy
josh
kallades
kladd
klubb
knark
koldioxid
koma
komplett
kongo
konstaterats
kontinuerligt
kortare
kottet
kuba
lagenheten
lakemedlets
langsam
lilly
lot
malcolm
matchar
medicinsk
merck
mobilen
narmast
nate
njursvikt
obligatorisk
otillrackliga
overdosering
overfors
passande
rattighet
representanter
rest
riktade
ross
sakerstaller
sand
sankt
senator
sjalvfallet
sjukvard
skarp
skinn
skottland
slutgiltigt
slyna
smaningom
spadbarn
spranga
staende
stangde
stoter
supplementet
syrien
torka
tragedi
troja
trost
undersokas
ungerska
upprattats
uruguayrundan
us
utgors
utnamning
vackte
vader
vadret
varnade
##06
##77
##aner
##bby
##beloppet
##betalas
##bolaget
##bor
##borg
##brukning
##ckningar
##cykel
##dragen
##els
##fru
##fs
##gerat
##ggd
##gjorde
##gn
##hydrat
##icin
##intyg
##itar
##ivna
##jant
##kansla
##knade
##koncentrationen
##lands
##lia
##licens
##litlig
##loshet
##mann
##maskiner
##mde
##mf
##minera
##minering
##mna
##mond
##mrat
##myndigheter
##nce
##nge
##nlig
##oi
##olen
##omradena
##platser
##post
##priserna
##raf
##risker
##rivas
##roner
##rott
##rsk
##ryt
##seffekter
##sforhallanden
##sgruppen
##ski
##sling
##slutning
##sorganen
##spar
##spriserna
##sproblem
##ssakerhet
##standighet
##stol
##tering
##ters
##ting
##uationen
##uerad
##ugan
##uset
##vall
##vanda
##vaningen
##varlden
##xen
##zi
##zol
109
140
468
administration
administrativ
air
andetag
anpassningar
ansluter
arten
avdelningar
barnbarn
bedrageri
bemota
berattigad
beskrivningen
betydde
bjorn
blasa
brande
brottsligheten
bruden
bunden
catherine
ce
civil
dean
deklaration
delegationen
dodsstraff
dokumentationen
dromde
enas
enastaende
enhetligt
extern
federala
fienden
finger
fitta
folken
forbudet
forlusten
forsvaret
framstallda
frekvensen
generation
globalt
gras
hallbara
hamtade
hanseende
hanterar
harold
horru
huvuden
ias
ifragasatter
individuell
inforliva
inledde
intervju
jessica
junior
kannedom
karta
kategorin
komplicerade
konventioner
kund
kvoten
kyckling
lissabon
livslangt
lngen
marknadsekonomi
medverka
mervarde
missforstand
misslyckande
montenegro
motiverat
motsvara
nagons
namnen
offra
oppnat
overforingar
overtradelser
ovrig
papekar
parametrar
pelaren
policy
poolen
poster
prioritera
prodi
projekten
raden
radion
rakenskaperna
receptbelagt
revision
rok
sakerhetspolitiken
saljs
samhallsomfattande
sate
signaler
skam
skams
skatten
skrivbord
slaget
soffan
sok
specifikationer
spion
statlig
stinker
styrning
super
tillampningsomradet
tips
titeln
todd
trappan
tunisien
turkiets
tvingande
undantaget
undantas
undervisning
upphort
upprepas
upptacker
urvalet
utfardandet
vager
varar
wayne
##21
##22
##80
##alistiska
##arbetat
##ball
##bekampning
##byran
##cal
##ding
##direktiv
##domar
##dosen
##drande
##dsel
##ecken
##efter
##ekonomiska
##eron
##ew
##farg
##fo
##foljd
##fordelning
##givare
##grad
##grava
##grepp
##inerade
##iro
##knologi
##kydd
##lamnas
##levande
##ligheter
##lningar
##lvin
##malen
##metod
##mit
##morgon
##mpar
##natet
##ngt
##oa
##oden
##oft
##olar
##oma
##onera
##ors
##patienter
##pol
##raft
##riktat
##rip
##ripna
##rix
##row
##sd
##seras
##sinstitut
##sligt
##star
##till
##tliga
##trad
##tts
##uationer
##uggar
##umet
##unionen
##utin
##vanliga
##vapnade
##vig
##volymen
##vy
##ylan
##ylt
##yo
##zie
114
117
administreras
administreringsvag
advokater
akuta
analysen
ansoker
anstalla
anstallning
antidumpningstull
arslet
arv
avenue
axlar
balansen
baserad
begatt
beviljades
bevisen
biljetter
billigare
blodtrycket
boston
bott
bred
buss
cigaretter
clay
cns
datumet
deltagit
digitala
diskriminerande
dodlig
domar
dygnet
evighet
existerande
fattade
felaktigt
fickan
filmdragerad
fixade
folkhalsan
forandringarna
fordelas
foreskrivna
forfogar
forlorare
forsakran
forseningar
framstegen
gaser
geneve
georgien
globaliseringen
godtar
gudarna
gulligt
halvt
helen
importtullar
indikationer
investering
jagade
jisses
kaffet
kameror
kanin
kaptenen
katastrofer
kliv
kombinationen
kontinuerlig
kontrollerna
kostym
kulor
laskigt
licens
licensen
lonsamhet
martha
meddelade
medlemslander
medvetet
mervardesskatt
minskningen
mordades
motiverade
mots
naval
observera
oljor
one
organiska
overtala
overtygelse
paborja
papekat
planera
programmets
provinsen
rapporterar
rattor
rostfritt
rykten
sammanhallningen
sammanslutningar
sande
sandningen
sank
sjunker
skadespelare
skorna
skugga
slappas
sloseri
sovrum
sport
strava
sv
svartsjuk
telefonnummer
terry
tjansterna
tjeckiska
toxicitet
underlag
universitetet
uppga
vakter
valjare
valts
varannan
variera
vaxande
vrede
walker
##43
##64
##74
##alys
##anol
##arer
##arsperiod
##bandet
##bestammelserna
##bidrag
##drift
##fard
##fiske
##ftet
##gavs
##hallna
##he
##hz
##iderade
##irektivet
##janster
##javlar
##kterna
##ktiv
##lart
##ledande
##lick
##liknande
##linjer
##lser
##lton
##mad
##massig
##meter
##mote
##mus
##nica
##nit
##oda
##ordnad
##paketet
##partementet
##rattsliga
##rediter
##rerad
##ression
##satgard
##sbistand
##sbolag
##sinitiativ
##slas
##slost
##sluten
##smassigt
##splatser
##sprak
##sratten
##stal
##styrka
##styrkan
##teras
##tern
##ucerande
##uide
##ulerade
##ump
##uttar
##uvor
##vattnet
##vokat
##yler
##ymt
##ysa
##yter
##zin
1260
178
2a
agare
amerikaner
arbetare
arig
arsrapport
audrey
avge
avskaffas
avvaktan
axel
bankerna
barbara
basen
begick
beraknade
beslutsamhet
besoker
betraktar
betyg
boss
bryt
budgetutskottet
byrakrati
citerar
coach
daruppe
datorer
delegerade
dygn
elizabeth
ethan
extrakt
fangarna
farger
fisket
flertal
flydde
forbattrade
foredra
foresprakar
forhor
forklarade
forlatelse
forlorad
forts
forutsattningarna
framgangsrikt
framhalla
franvaro
gast
gaster
gd
geografisk
halsovard
halvar
hangde
hava
hemifran
hemlig
hinna
ingatts
innefatta
inspektioner
institutionernas
inta
internt
jay
journalister
kal
kanal
kapslar
karnvapen
kastas
kat
kemoterapi
klaga
kokain
konsekvens
konstateras
kraftfullt
kreditinstitut
kristen
kritisk
kulan
kulturen
kusten
kvalifikationer
locka
lou
lufttrafikforetag
manniskohandel
materialet
matning
medicinen
medlemmarna
medverkan
midnatt
miller
mojliggor
motsatta
mus
naturlig
normalvardet
olycklig
onodigt
orattvist
ordnat
organisera
osakerhet
oster
otillracklig
oversattning
overtygande
overvakningsmyndigheten
papekas
passera
pastaende
produktens
professorn
promenad
provar
provisoriska
publiken
redovisas
reducera
rensa
reparation
schweiziska
serena
sexuell
skots
skyldigheten
slaktingar
snubben
sparade
sparas
sparkade
stabiliteten
stadium
station
stolta
straffa
strangare
strida
stunden
synliga
synsatt
systematiskt
teori
territoriet
thompson
tidsperiod
tidsplan
tillfredsstallelse
torkade
trafiken
tulltaxan
tystnad
underlattar
underskrift
unionsindustrin
uppdatering
upptacka
utsetts
utvecklingslander
valdsamma
vavnader
viner
white
zonen
##04
##27
##33
##37
##ac
##acken
##aktioner
##arbetet
##brev
##cb
##demokrater
##dragna
##du
##ektiv
##elson
##eo
##fasta
##fatta
##flyttning
##forandringar
##foreningar
##foretagen
##forfaranden
##formaga
##fororeningar
##genheter
##gjord
##hl
##ifiera
##ikal
##imum
##itz
##king
##kommet
##krets
##kvot
##lering
##liten
##lska
##lunda
##lus
##lutning
##made
##misk
##myndighet
##ografiska
##olutionen
##oro
##ote
##pengar
##polisen
##rag
##ralen
##reras
##sakra
##sarna
##sdag
##sdjur
##sfonder
##sgivare
##sin
##sked
##slar
##soka
##song
##sordningen
##ssystemen
##stationer
##statliga
##svardet
##tala
##tratt
##truktur
##ttning
##unge
##utta
##vald
##varig
##verkare
##visande
##yes
##α
1970
1975
450
900
ab
ackligt
alexander
amning
ana
angrepp
anlander
anlitade
arbeten
atanke
avgor
avregleringen
avslojar
bakat
bauer
beraknad
beraknat
berget
beromda
bestammas
bestandsdelar
bet
betrakta
biologisk
blandas
blott
bockerna
brann
bredare
bredd
c4
certifiering
dexter
dk
efavirenz
engagera
ersattningen
eugfj
finska
fiskare
fixat
flexibel
flyttas
folks
formel
formen
fornuft
fornyat
fororening
forsakring
fortjusande
grabbarna
gronboken
gynnar
hjartligt
hoge
humant
injektionsvatskor
inkomst
innovativa
instrumenten
intern
investeringsbanken
israels
jacques
japanska
kapabel
klienter
klimatforandringar
kommissarien
komplicerad
konstapeln
kosta
krigare
kristus
kvantiteterna
lank
limited
litade
lovande
marty
mcgee
metaboliseras
miljard
miljomassiga
mors
moster
motiv
motorn
mott
narma
nedanstaende
norman
nufortiden
oegentligheter
operationer
orsakas
otur
overlamnas
pase
personlighet
praktisk
prioritering
rada
rapporterna
registrerats
ronnie
sarbara
sekreterare
showen
skamta
skarpa
slita
sp
stabila
steven
straffet
strategiskt
stulit
tarar
territoriella
thailand
tillsynsmyndigheterna
tranar
tyler
underteckna
utformas
utsedda
varaktighet
vardena
varen
varv
vintern
vittnesmal
yrsel
##32
##59
##agen
##ales
##amring
##atsen
##attningar
##batar
##berattigade
##bjuder
##ble
##botar
##cey
##cykeln
##dex
##dningen
##dome
##ei
##ette
##ever
##fattas
##ffran
##forordning
##fristiga
##granser
##head
##hy
##iff
##imus
##ink
##inrar
##jara
##juter
##korna
##kring
##lamning
##licenser
##lim
##litazon
##lorid
##lta
##lter
##lu
##mark
##miska
##missionen
##mjol
##mningar
##mpan
##nats
##nig
##ningsmedel
##nitt
##numret
##oli
##ordnade
##pakten
##porna
##prat
##rapporten
##redning
##resultat
##rod
##sdel
##sdomstolen
##serna
##sforhandlingarna
##sfull
##sgrad
##sjuk
##skonferensen
##slista
##slor
##smojligheter
##snivaer
##sradet
##sstrategin
##stillverkare
##stret
##sur
##tabell
##tagaren
##tant
##telse
##terier
##tika
##tle
##tons
##tren
##ublik
##udin
##uerade
##ument
##usa
##usen
##vagnen
##vera
##viga
##yck
##ylen
110
218
adla
affarerna
alskare
anmalda
antaganden
arbetsgruppen
arligen
atagandet
aterhamtning
avslutande
befintlig
bekostnad
beredskap
betankandena
bilolycka
blicken
borgmastaren
branna
centralt
diana
direktivets
drycker
drygt
earl
erik
exportera
falskt
fangade
faststalld
fiska
fiskeriprodukter
folkrepubliken
fordoma
forma
forskrivning
fortsattningsvis
forvara
fotot
garantin
getter
gps
greg
gula
herres
hitat
index
informations
ingas
inkom
installation
integreras
intelligent
katten
klimatforandringarna
knacka
kommandot
komplex
konkurrenskraften
konstaterades
korv
kostnad
krakningar
kram
kungarikets
kust
kyrka
lador
landsbeteckningar
lanet
ledtradar
leende
liberala
lukten
lyckligtvis
lyda
marco
markera
marks
matte
medarbetare
metyl
mmm
monoterapi
morden
motstandare
muren
nace
norrut
notera
olaf
olivolja
omfattade
omsesidig
oratt
org
otrogen
overgangsbestammelser
parker
parternas
pastor
peka
penna
petroleum
protein
protest
provat
public
rasocker
representativt
rider
rorelser
rutan
schablonvardena
senaten
skadorna
skilsmassa
skonhet
slang
slangde
sort
spa
spridningen
stannat
stephen
stjarnorna
stodatgarder
storm
story
substans
svardet
symbol
tackmantel
tackning
tfn
trupper
tullen
tyskarna
undantagsfall
uppforande
uppfyllts
uppkommer
utbetalningar
utesluta
utformade
utsatt
vana
vanstra
vinsten
viraferonpeg
viruset
vittna
world
zimbabwe
##0000
##41
##54
##81
##88
##93
##alisera
##aliskt
##als
##anerna
##avfall
##bedomning
##bell
##betet
##bu
##cering
##chema
##ckliga
##ddes
##dien
##dliga
##ekt
##ero
##fattande
##fragorna
##gda
##ghet
##gin
##ginalen
##goring
##graver
##grupperna
##hydroxid
##iens
##igen
##ikat
##inerats
##inet
##ite
##jken
##jud
##jut
##kapacitet
##karlen
##kepp
##kis
##klagande
##kommande
##kontroller
##kostnaderna
##kraven
##kus
##lever
##liptin
##lk
##llet
##logi
##low
##mmor
##munikation
##ndo
##nerna
##netiska
##nivaerna
##non
##nsin
##oc
##oke
##ope
##phy
##ple
##rads
##rala
##rant
##rattningar
##ree
##regionen
##riva
##rutor
##samling
##sbaserade
##senliga
##skapen
##skola
##skolan
##smarta
##sna
##spelning
##srapporten
##stagande
##stiftningen
##talt
##tecken
##tivt
##tligt
##tm
##tol
##tradde
##uben
##uellt
##uering
##uin
##ulfat
##urgi
##uri
##vasendet
##vation
##veln
##verkande
##via
##vningen
##von
##ws
##ydliga
##yt
##zer
108
145
1978
administrativt
agnat
algeriet
alibi
ambitioner
ambitiosa
amnena
anordning
ansikten
anslutningsakten
anti
antonio
arkiv
arrangemang
aska
atagandena
automatisk
aventyra
avgifterna
avsikten
badrummet
bagge
barcelona
bedomningar
befal
berattelse
berattigat
beslot
bestams
betalats
biblioteket
bilda
billigt
bistandet
blaser
blue
brod
budskapet
cameron
carol
cmax
darborta
databas
densamma
depression
djupgaende
djuret
djurs
doug
elliot
emu
erhaller
erhallit
esf
etablerad
fangster
fascinerande
flaskan
florida
forbattrar
forekomma
forpackningsstorlekar
foten
framtradande
francisco
frankie
funktionshindrade
gabriel
gator
get
gevar
giltiga
giltigt
gra
graver
grymt
hamn
haven
hill
honung
hydroklortiazid
hyser
identifierats
idioten
indiska
informationssystem
infusion
inkommit
innehas
intervall
intervjun
intrycket
javlarna
jersey
judar
julen
kaka
kapaciteten
kommissionsordforande
konkurrenskraftiga
konstaterat
kopiera
kraftfull
kravde
kungens
kvitt
laglig
lastbilen
lediga
ledtrad
lektion
levern
lillebror
linjer
livets
loppet
maka
marcus
marknadsforing
marshall
matthew
mekanismen
meningslost
metabolism
ministern
moskva
name
offentliggorande
olivia
organen
organiserad
overforas
overlevnad
oversanda
palmer
partnerskapet
pat
penis
pennan
pilot
plockade
plockar
presidiet
queen
rakat
rapporteras
redovisning
regelbundna
regeln
regionalpolitik
regionalt
roven
sakerhetspolitik
sally
samfundet
sankning
seattle
sk
skogsbruk
skojade
skrik
slosa
socialdemokratiska
somliga
sparat
spy
stodordningen
stracker
stralning
striden
strom
styrkor
synder
tanderna
tavlingen
tidningarna
tillgangarna
timmars
tok
tolkar
tolkas
tradet
tradgard
tragiska
traning
upphavas
uppkommit
utarbetat
utnyttjade
utpressning
utsattas
utvecklat
utvecklingssamarbete
vettigt
vilkas
zon
##48
##agor
##aktigt
##aktiv
##alet
##aloger
##amin
##ariga
##atgarderna
##ativt
##avgifter
##beroende
##bilar
##bordet
##byggande
##ckla
##ckling
##cknar
##dlare
##edlet
##effekter
##ence
##enser
##etiskt
##europa
##fett
##forare
##forbindelser
##forskning
##forvaltning
##garn
##gioner
##gjordes
##grastim
##gripande
##gripligt
##halter
##ics
##ides
##igas
##inflammation
##insulin
##ish
##istan
##jocklek
##kallor
##kie
##kistan
##kladd
##koncentration
##konferens
##kvaliteten
##lager
##later
##lement
##lerade
##llde
##lly
##lopande
##lott
##menten
##mentet
##nehall
##nner
##ntan
##odade
##ode
##oll
##onten
##ordningen
##organisation
##ou
##patibilitet
##ppor
##radd
##radena
##ragande
##raktion
##rare
##regimen
##rerar
##resse
##rest
##riken
##rliga
##roder
##rst
##sfasen
##sfonden
##sfragan
##sfulla
##sionen
##slivet
##slutna
##somhelst
##sorganisationen
##ssan
##ssatt
##steknik
##stiska
##tatus
##teknik
##tong
##typer
##udent
##ugh
##ulen
##ulerar
##under
##usion
##usul
##utt
##valet
##vardering
##varmning
##vaska
##vdes
##ventionen
##vida
##visades
##visat
##vligt
##wan
##yg
##ylla
##zonen
##zzo
##σ
1107
1580
230
3000
ag
aldern
amerikas
anklagar
anstrangning
anvandbart
atal
atfoljs
atskillnad
attack
attityd
attonde
avvikande
barnets
befann
besvar
betankandets
bete
bidragen
bifogas
blodning
bluff
box
brad
bristol
byxorna
centrumet
check
dale
delgivet
diameter
diskuterade
driften
dryck
dublin
eder
ekologisk
elaka
enats
envis
erfarenheten
erkant
etablera
exponeringen
fallande
falsk
fantasi
fattats
felaktiga
fiskarna
fjaderfa
flygplats
folkomrostning
foralskad
forandrade
forberett
forhindrar
freden
fredliga
gemenskapslagstiftning
generalsekreterare
genomforde
gjord
gripen
guldet
hanvisa
hastdjur
helg
hemmet
hindren
holmes
humanlakemedel
iaktta
inbrott
ing
ingripande
inriktas
insuman
intet
investeringarna
jordan
justin
kapitalet
klandra
klattra
kollegerna
kommersiell
konkurrenter
konkurrera
konstruktion
kraftiga
krankningar
kravt
kulturell
labb
landers
lasta
lena
leveranser
lopa
losenord
margaret
meddelat
metformin
modernisering
monstret
motorvagen
mottagaren
my
nacken
ng
njuter
nm
nordkorea
okanda
omedelbara
omgaende
omstruktureringen
omstruktureringsplanen
online
onodan
onsdag
ora
ordentlig
orsakad
pafoljder
pastaenden
presenterade
provas
reduceras
referenser
reformera
regimen
registrera
religion
rev
riskbedomning
river
rosten
sagas
sammantraden
samordnade
sandebud
sandning
sannolikhet
sarad
skadas
slanga
sokt
sommar
sott
specialagent
spendera
stabiliserings
stabilitets
standpunkter
stralande
styrs
tara
tarta
tillverkarens
tjansteforeskrifterna
traffad
trasig
trist
trivs
troligtvis
trycker
trycket
undertecknade
uppmaning
utomeuropeiska
utovandet
valdet
vardefull
vardelos
veckors
video
viljan
vilt
vitsocker
vittnar
wilson
yeah
##46
##49
##61
##ae
##agens
##aliska
##aller
##amhet
##ansvariga
##anten
##antorer
##ao
##arm
##atlantiska
##ax
##befolkningen
##bet
##betalningen
##bon
##bransle
##cc
##city
##dc
##delen
##dlingar
##dningar
##duktion
##eda
##eum
##falla
##fat
##ffaren
##ficering
##fik
##fikation
##filen
##forhallandena
##formaner
##formular
##frekvens
##fter
##gangare
##godkannande
##gram
##halle
##hetsgrad
##holm
##house
##iel
##ikalt
##ild
##ime
##inger
##iss
##istrar
##iz
##jansten
##jk
##jorta
##jurar
##kaper
##kapten
##kelse
##kla
##kliga
##kon
##kong
##ksam
##kvall
##kvamt
##landsk
##laren
##lasta
##lden
##lik
##liter
##ljare
##lliga
##lossning
##marna
##mb
##ministeriet
##mman
##mme
##mojligheter
##nget
##nia
##nik
##ogna
##olerans
##ori
##otiska
##pare
##plikationer
##produkten
##ptiska
##rence
##rent
##rigering
##rips
##rlanderna
##roppen
##ruva
##ryn
##sbidrag
##sfartyg
##shantering
##sikten
##sistera
##skrift
##slutet
##smassig
##snat
##sons
##sresultat
##sresultaten
##stalla
##stallningar
##strar
##tina
##tio
##tp
##ttar
##ublikationer
##udan
##ullar
##undersokningar
##utisk
##vakt
##velse
##vice
##visats
##vist
##vorna
##we
##ymerer
##о
##я
119
123
126
142
alliansen
alternativt
ambitiost
angivande
anthony
arbetsprogram
argumentet
arsle
astadkommit
atervant
atkomst
attjag
audiovisuella
avgiften
avsaknaden
bankens
barney
batchnummer
beaktats
begarda
bekampningsmedelsrester
besattning
besattningen
beslutas
beviljar
brinna
bryggan
byra
centralbank
chock
cooper
darvid
dell
der
derivat
distriktet
djurens
douglas
drev
dromma
energin
enhallighet
erkanda
ersatts
fabrik
fabriken
faktisk
fastnat
flaskor
flexibla
fokuserar
foljden
forberedelser
fordonstyp
forhojda
formodar
fornuftigt
forskott
fortsattning
framjas
gangs
gradde
grannarna
grant
gynnade
halet
handlingen
hanvisade
harvey
hasten
haxa
hedra
hemsida
hissen
hollywood
homosexuella
hotel
hu
hypertoni
identifieras
ikt
inleder
inneholl
insatserna
intraffat
intravenost
ironiskt
isar
jamnt
jonas
jordbruks
jordbruksforetag
journal
juryn
kakor
kampanj
karnan
konsumtion
kontaktade
kontinent
kopenhamn
kopplad
kretsar
kurt
lane
lektionen
likabehandling
livstid
lopt
mac
mala
malsattningen
manskligt
maskstorlek
medges
moder
mork
morker
motivera
myers
nasa
nast
nationalitet
naturgas
nedsattning
nivaerna
oacceptabla
offentliggorandet
oforenligt
ombud
omojliga
oroande
overgav
overge
overhuvudtaget
planbok
polarn
potatis
prekliniska
presenterar
produktresumen
rakenskaper
ramar
reformerna
regeringscheferna
rep
restaurang
samhallets
samlats
sammanstalla
sammy
schablonvarde
si
signalen
singel
sistnamnda
skapats
skicklig
skylla
smutsiga
sol
soldaterna
somn
sortens
stilig
stormen
stralkastare
svang
sydkorea
synnerligen
taiwan
talaren
tankbara
tillampats
tilldela
tillsatser
tillverkar
titel
tomten
toppmote
transportmedel
tredjedel
trubbel
tullkvoter
tullsats
ungdom
unik
uppfattningen
upplysa
uppmuntras
utbildnings
utbytet
utmaningarna
utovas
utredningar
uttrycket
vaggarna
vagnen
vakten
valjas
vaning
vant
varldshandelsorganisationen
vattenbruk
vaxthusgaser
vederborligen
watson
whoa
##28
##57
##69
##91
##acon
##agliga
##agna
##agnos
##ansokan
##arier
##bal
##bbade
##behor
##blandningar
##block
##boratorier
##brand
##bror
##byxor
##chi
##cial
##ckad
##ckare
##ckel
##cknade
##dligt
##edel
##edom
##egi
##enterade
##eroider
##ester
##etrar
##faktorn
##fix
##forsvar
##fylld
##gbar
##gbara
##gier
##gifter
##gningar
##goras
##hallare
##hers
##idat
##ikett
##iki
##inarie
##inera
##irra
##iserande
##iserats
##iset
##ito
##jutande
##kansligt
##kemi
##kinen
##klass
##kniska
##koder
##komsten
##lader
##latande
##latenhet
##lation
##ldighet
##leda
##lemsstat
##lers
##levnad
##linje
##lips
##llas
##lli
##lningen
##marknad
##mda
##mis
##mmelse
##namns
##nits
##nsaktionen
##nsaktioner
##nts
##olo
##onger
##opa
##otisk
##perspektiv
##plikt
##ppas
##ppningar
##rapport
##razol
##redit
##ropa
##ruktion
##ruktiva
##rustning
##rutet
##satts
##sbudget
##sbyran
##sfall
##shandlingar
##sis
##skalle
##skriterierna
##smedborgare
##srelaterade
##standen
##steg
##stemperatur
##svarde
##talle
##tens
##terad
##tiell
##trukturen
##tton
##tusen
##tz
##uckan
##unda
##unniga
##ute
##vaga
##vakta
##vanlig
##varing
##venemang
##vern
##vers
##vesteringar
##vien
##vikten
##ymer
116
118
131
137
1782
1833
1979
210
2454
270
337
3a
999
abu
akten
anklagelser
ankomst
antagen
arbetsplatsen
arrestera
ateruppbyggnad
atervinning
avslag
avslutades
avslutats
avstangd
bakre
bedomer
begatts
behoven
benjamin
berakningar
bero
berord
beskrev
betydelsefull
biljett
binda
blommorna
boende
bonor
bortse
brigadgeneral
bro
brody
brottslingar
charlotte
claude
colombia
cox
ctu
dagars
daniels
dejtar
delstaten
demon
dolda
dramatiska
drinkar
efternamn
egenskaperna
elektricitet
erkannandet
erkannas
fangen
fardigheter
farmakokinetiken
farmakokinetiska
farsa
fattigaste
fetter
fibrer
filen
fl
forbannat
forbannelse
forbattrat
forbindelse
forbrukningen
foreskrifterna
foretradarna
forknippade
fornuftig
forsakringar
fortjanade
fortroendet
fortryck
forvanar
fotnot
fredlig
frekvenser
fruktansvarda
fullkomligt
gata
gemenskap
glasogon
glukos
gom
gosse
gransvardena
green
grejerna
group
gullig
hallen
hanfor
hektar
helikopter
heltackande
hjartattack
hundarna
hunnit
ifragavarande
ikrafttradandet
imponerad
injektionsflaskor
injektionsstallet
injicera
innehallsamnen
institutionen
intresserar
iu
jattekul
journalist
kallare
kamerorna
kansligt
kaos
kenny
klaganden
klassisk
knappa
knullade
knutna
kok
konkurrenskraftig
konkurs
konstruktivt
konsumentfragor
kopplade
kurser
kw
lagstiftande
landar
ledarskap
life
little
logan
magiska
makroekonomiska
maktig
maktiga
manny
marknadsandelar
mason
materiel
medfort
mekaniska
monica
multinationella
ngl
nice
novo
okant
ombudsmannens
onskat
oppnades
ordnade
oroad
oscar
osterut
osteuropeiska
overlevande
overraskad
overskott
overvakar
partners
pi
pierre
piper
premiarministern
producent
puls
redogorelse
reglerar
regnet
revisionsrattens
riktlinje
ropa
ropar
runda
ruta
rymmer
samarbetade
sammanhallningspolitiken
samstammighet
sebastian
sedlar
sektorns
sheldon
sjong
skammas
skjutit
skona
skum
skyddsniva
slavar
sliter
slutgiltig
smidigt
socialistiska
sons
sovrummet
spand
sprids
statistiken
stenar
stjarnor
stodbelopp
stol
stoppas
stot
stotte
stuckit
svalt
svaren
tavling
texter
tillgodose
tillverkats
tjanade
tjugonde
topp
traditioner
trevliga
tunneln
typiska
underliggande
unionsindustrins
united
uppgorelse
upphavs
uppmuntrar
ursprungsland
utesluter
utoka
utsidan
utsondras
vaggar
vakterna
vasen
verksamt
vidarebefordra
vince
vinnare
vitbok
walt
wolf
yrke
##44
##abelt
##agg
##agning
##alerna
##aliteten
##alogen
##amling
##anan
##ani
##ansk
##aring
##aringar
##ark
##arknad
##atiskt
##atter
##behovet
##bilder
##bisk
##bjudande
##borda
##bryter
##bund
##byra
##centrat
##cetat
##cient
##ciplin
##delande
##dering
##dlar
##dret
##drivet
##drivna
##eb
##ef
##efficient
##einer
##elia
##enheter
##ensen
##erce
##etten
##fader
##fattar
##fektion
##ffekt
##ficient
##filer
##folk
##foretagare
##forlust
##format
##forordningen
##forslaget
##ftan
##gate
##gemenskapen
##gering
##ggda
##gistret
##givarna
##glade
##glukos
##got
##gret
##hallit
##hang
##harm
##hip
##holls
##ibla
##iddare
##iera
##iley
##inska
##isor
##itt
##jal
##jare
##jart
##jde
##kanalen
##kanslighet
##kigt
##kraften
##krig
##kroppar
##ksamma
##kte
##kts
##laga
##lagna
##lationen
##lines
##llan
##lod
##lovade
##mastaren
##medlet
##merad
##mineras
##minium
##mne
##mningen
##nast
##nering
##nitet
##nsaktion
##nserna
##odas
##ogar
##ografi
##omfattande
##omma
##onferens
##ongen
##pis
##pm
##ponent
##posten
##principer
##racka
##rakningen
##rane
##rattelse
##redienser
##republiken
##ressiv
##right
##ril
##rne
##rostitution
##rth
##ruktiv
##samtal
##sbanken
##sbar
##schen
##sedlar
##senhet
##senheter
##sera
##sfat
##sfond
##skning
##skyddet
##sland
##somradena
##srummet
##sstodet
##stader
##stalle
##stansen
##strat
##syr
##systemen
##tabellen
##tation
##teckningar
##telefon
##tetiska
##tillskott
##udie
##ulart
##uner
##ursen
##urser
##uston
##ution
##utslappen
##vandling
##vapnad
##vapnet
##varen
##vgifter
##vits
##vlar
##ygg
##ysst
124
1898
1977
1986
371
aaron
administrationen
aktenskapet
aktieagare
allison
ambitios
amerikan
angie
antaget
anvandandet
arbetsdagar
arbetskraft
arga
aspekten
au
aventyr
avsatta
avsevarda
batar
bay
begravningen
bekymrad
beslutsfattande
bestallde
beundrar
blandar
blick
bot
bota
botemedel
brostet
bytt
chanser
christine
cirkel
dansen
daphne
diskuterats
dodsstraffet
domstolar
dyra
efterhand
efterlevs
enbrel
enterprise
erytropoietin
etapp
farsk
fatal
fattades
feg
femtio
filter
finansinstitut
finaste
flykt
fordelen
fordragets
forkasta
formedla
framlingsfientlighet
fula
ganget
gard
garderoben
generella
giltighet
gram
graven
grisar
gue
haftig
hemvist
herrens
historisk
hmm
ho
hordu
hota
hungriga
ian
icao
importor
inbordes
inkluderas
inlett
inneborden
instamma
jada
joda
jude
juridiskt
kanalen
kineserna
klagande
knyta
kollegan
kommunicera
kompromissen
koppar
krossar
kulturer
kvinnornas
kycklingar
lagarna
lagliga
landning
leon
levererar
liam
libyen
lila
lin
lois
lojalitet
louise
lydia
lyser
madde
mail
marklig
marknadsekonomisk
marvin
massforstorelsevapen
meredith
mitchell
nackdel
naja
national
nationer
nojet
noterade
novartis
olyckligt
oppnande
otroliga
overensstamma
overvager
pack
pensioner
philip
planerna
pojk
proffs
rar
rekommendationerna
representation
resolutionsforslaget
riktad
rokning
roman
rov
rymde
rymma
sallad
seth
sharon
side
sjoss
skjortan
slappt
slav
smyga
snett
socialpolitik
sonen
soppa
sorjer
south
sperma
stabilitetspakten
standig
stefan
stegen
straffas
strukturen
sunt
svars
svettas
svullnad
symboler
synlig
takt
tanda
teamet
tess
tidningar
tillforlitliga
tillit
tina
toa
tobak
tolerans
torr
tranare
tullomrade
undersokte
undersokts
uppehallstillstand
upplevelse
ursprungsbeteckningar
utav
utbyta
utgangsdatum
utreda
utrikesfragor
uttrycks
utvecklingsfonden
vaccination
vaccinet
vadjar
valdsam
vanja
varelser
varst
varumarke
vetenskapen
vetenskapsman
vild
villkoret
wendy
≥1
##003
##39
##52
##agar
##agarna
##agram
##akten
##aktiva
##alin
##aljare
##analys
##ancerade
##ander
##anlaggningar
##arat
##arv
##ate
##batt
##beln
##bition
##bocker
##book
##brot
##bservatorer
##ciens
##ckna
##cr
##diktion
##domen
##eady
##ector
##eglar
##ekar
##elare
##eligt
##enix
##erativ
##ese
##esiska
##fann
##faren
##flode
##flu
##fodda
##fon
##forandringen
##forde
##fordelar
##formularet
##geringen
##gers
##gget
##ght
##gifta
##gjorts
##gnar
##grafi
##grans
##hag
##handling
##igan
##ilen
##inal
##inering
##itlet
##itution
##ivande
##jakt
##jana
##jningen
##kakor
##kisk
##kodex
##kologiskt
##kret
##kyldighet
##lagan
##laggas
##lastning
##lde
##lita
##ljen
##lka
##llare
##llda
##lodipin
##lottan
##metoden
##mlikhet
##moner
##nack
##narna
##nera
##ngeln
##nkett
##nning
##nsplantation
##ogenhet
##ogs
##olog
##onerna
##onterade
##ood
##orm
##ostra
##person
##plantation
##pligt
##pling
##poang
##ponenten
##problemet
##pumpar
##rades
##raktiv
##ralar
##rangt
##rde
##register
##resurserna
##rnen
##sagare
##sakt
##sann
##satter
##sdos
##sfaren
##sforbud
##sforhandlingar
##sformer
##sintyg
##siska
##sisterade
##skaper
##skonferens
##skort
##skrida
##skriterier
##slagstiftningen
##sorption
##spartner
##status
##sterna
##strom
##syn
##tagarna
##talet
##tallen
##tier
##tinationer
##tna
##trafiken
##trat
##ttefint
##uggling
##undersokning
##uropeiska
##usk
##utbyte
##utsikter
##uvernor
##vagarna
##vanarna
##vandare
##vardiga
##vasen
##verka
##verksamheten
##verse
##xin
##xon
##yatt
##ylten
1255
127
129
1408
147
185
1981
1983
2200
2913
543
548
accepterade
aktor
ali
alu
ambassador
andamalet
anglar
arbetsgrupp
arbetsprogrammet
arbetsvillkor
artionden
ateruppta
atgarda
avkastningen
avsiktligt
avskaffande
avskaffandet
badrum
bakifran
barnvakt
bebis
behandlat
belastning
beloppen
betonat
blinda
block
blodsocker
bly
bostader
bristerna
brittisk
buck
christian
cyklar
cyp3a4
damerna
dessvarre
digital
dokumenten
drabbat
eftermiddagen
enades
eran
erhalls
etiketten
exemplet
exponeringar
exportorer
fallit
faran
farmaceutiska
fartygets
felet
fiskemojligheter
fisken
flertalet
flygbolag
flyget
forbattrats
forbjudna
forenkling
forhand
formulering
fornyelse
forsenad
forstainstansrattens
forutse
forvaltare
framforallt
francis
fransk
fruktansvard
frus
gavor
gengald
genomforda
gina
gloria
gottgora
graham
griper
grunda
gryningen
handlingarna
hemoglobinnivan
hitler
hoc
holly
hudutslag
hursa
hypotension
ices
immateriella
individuellt
inflammation
informationsutbyte
ingatt
insekter
intrade
iranska
jamfor
kampade
kampat
kannetecken
kanten
kapsel
ke
klanningen
klarhet
klimat
knipa
kompletterar
komplexa
korten
kriminella
kriterium
kritisera
lader
lakarna
lake
lastbil
ledaren
ledarna
lekte
leverantor
liket
live
loptid
lt
manliga
markta
medicinskt
megan
merlin
michelle
minimikrav
mister
motiveringen
motsta
nalen
natalie
nuts
nyskapande
obearbetad
odla
officer
okay
onskvart
original
oronen
orsakats
otillrackligt
overgar
overraskningar
oversatta
overvinna
palestina
pappan
parlamentarisk
penningtvatt
platta
procentenheter
quinn
radgivare
ralph
rattsakt
reagerade
rosor
rubriker
rulla
rumanska
russell
ruth
rysk
samsta
sarade
sektion
sikta
sjoman
sjung
skadan
skivor
skotte
skrift
skrot
skumt
slaktkroppar
sophie
spaniens
spanning
stodsystem
stold
straffrattsliga
strikta
studerar
stunder
subkutant
subventioner
svagheter
svarat
syd
tant
tavlan
teater
teorin
tidiga
tillkannagivandet
tillsynsmyndigheter
tolkningen
tomater
tornet
tracy
tradgarden
transitering
trettio
tvattar
unika
unikt
uppdatera
uppmarksamheten
uppror
utrota
utvag
valutafragor
vampyrer
vanligaste
vansinne
vantan
vardelosa
varelse
vasterut
verheugen
verkningar
verkstallighet
vind
virginia
volymer
volymprocent
wallace
wien
xv
yl
ziva
zoe
zoner
##!
##"
###
##$
##%
##&
##'
##(
##)
##*
##+
##,
##-
##.
##/
##:
##;
##<
##=
##>
##?
##@
##[
##\
##]
##^
##_
##`
##{
##}
##~
##¡
##£
##¤
##¥
##§
##©
##«
##¬
##®
##±
##¶
##·
##»
##¿
##×
##æ
##ð
##÷
##ø
##þ
##đ
##ħ
##ł
##œ
##ʼ
##ˮ
##β
##γ
##δ
##ε
##ζ
##η
##θ
##ι
##κ
##λ
##μ
##ν
##ξ
##ο
##π
##ρ
##τ
##υ
##φ
##χ
##ω
##б
##в
##г
##д
##е
##ж
##з
##и
##к
##л
##м
##н
##п
##р
##с
##т
##у
##ф
##х
##ц
##ч
##ш
##щ
##ъ
##ы
##ь
##э
##ю
##є
##ن
##ه
##‐
##‒
##–
##—
##―
##‘
##’
##‚
##“
##”
##„
##†
##‡
##•
##′
##‹
##›
##⁄
##€
##↑
##→
##↓
##↔
##∂
##−
##√
##∞
##≤
##≥
##■
##□
##▪
##►
##●
##♦
##♪
##➥
##土
##魯
##
##
##
##
##
##
##�
